{
  "version": "1.0",
  "truncation": null,
  "padding": null,
  "added_tokens": [
    {
      "id": 0,
      "content": "[UNK]",
      "single_word": false,
      "lstrip": false,
      "rstrip": false,
      "normalized": false,
      "special": true
    },
    {
      "id": 1,
      "content": "[PAD]",
      "single_word": false,
      "lstrip": false,
      "rstrip": false,
      "normalized": false,
      "special": true
    },
    {
      "id": 2,
      "content": "[CLS]",
      "single_word": false,
      "lstrip": false,
      "rstrip": false,
      "normalized": false,
      "special": true
    },
    {
      "id": 3,
      "content": "[SEP]",
      "single_word": false,
      "lstrip": false,
      "rstrip": false,
      "normalized": false,
      "special": true
    },
    {
      "id": 4,
      "content": "[MASK]",
      "single_word": false,
      "lstrip": false,
      "rstrip": false,
      "normalized": false,
      "special": true
    }
  ],
  "normalizer": null,
  "pre_tokenizer": {
    "type": "Whitespace"
  },
  "post_processor": null,
  "decoder": null,
  "model": {
    "type": "BPE",
    "dropout": null,
    "unk_token": "[UNK]",
    "continuing_subword_prefix": null,
    "end_of_word_suffix": null,
    "fuse_unk": false,
    "byte_fallback": false,
    "ignore_merges": false,
    "vocab": {
      "[UNK]": 0,
      "[PAD]": 1,
      "[CLS]": 2,
      "[SEP]": 3,
      "[MASK]": 4,
      "0": 5,
      "1": 6,
      "2": 7,
      "3": 8,
      "4": 9,
      "5": 10,
      "6": 11,
      "7": 12,
      "8": 13,
      "9": 14,
      "a": 15,
      "b": 16,
      "c": 17,
      "d": 18,
      "e": 19,
      "f": 20,
      "g": 21,
      "h": 22,
      "i": 23,
      "j": 24,
      "k": 25,
      "l": 26,
      "m": 27,
      "n": 28,
      "o": 29,
      "p": 30,
      "q": 31,
      "r": 32,
      "s": 33,
      "t": 34,
      "u": 35,
      "v": 36,
      "w": 37,
      "x": 38,
      "y": 39,
      "z": 40,
      "in": 41,
      "th": 42,
      "an": 43,
      "er": 44,
      "to": 45,
      "ou": 46,
      "on": 47,
      "ing": 48,
      "re": 49,
      "at": 50,
      "it": 51,
      "st": 52,
      "or": 53,
      "the": 54,
      "ll": 55,
      "me": 56,
      "is": 57,
      "ha": 58,
      "ee": 59,
      "ay": 60,
      "oo": 61,
      "ve": 62,
      "ar": 63,
      "ow": 64,
      "le": 65,
      "you": 66,
      "and": 67,
      "en": 68,
      "ch": 69,
      "my": 70,
      "ed": 71,
      "es": 72,
      "ot": 73,
      "as": 74,
      "so": 75,
      "be": 76,
      "ic": 77,
      "ad": 78,
      "gh": 79,
      "am": 80,
      "al": 81,
      "im": 82,
      "day": 83,
      "of": 84,
      "for": 85,
      "lo": 86,
      "all": 87,
      "li": 88,
      "wh": 89,
      "et": 90,
      "om": 91,
      "bu": 92,
      "ac": 93,
      "wi": 94,
      "un": 95,
      "he": 96,
      "ly": 97,
      "ke": 98,
      "id": 99,
      "go": 100,
      "ti": 101,
      "se": 102,
      "ght": 103,
      "that": 104,
      "ver": 105,
      "ri": 106,
      "out": 107,
      "sh": 108,
      "one": 109,
      "up": 110,
      "have": 111,
      "now": 112,
      "ust": 113,
      "we": 114,
      "nt": 115,
      "ld": 116,
      "ant": 117,
      "ter": 118,
      "but": 119,
      "do": 120,
      "ne": 121,
      "wor": 122,
      "ir": 123,
      "ho": 124,
      "ro": 125,
      "just": 126,
      "ere": 127,
      "mo": 128,
      "ood": 129,
      "tw": 130,
      "ab": 131,
      "with": 132,
      "no": 133,
      "ur": 134,
      "its": 135,
      "get": 136,
      "ill": 137,
      "are": 138,
      "not": 139,
      "was": 140,
      "qu": 141,
      "ni": 142,
      "ck": 143,
      "la": 144,
      "ra": 145,
      "ry": 146,
      "pe": 147,
      "ma": 148,
      "pp": 149,
      "co": 150,
      "tt": 151,
      "good": 152,
      "ont": 153,
      "com": 154,
      "work": 155,
      "this": 156,
      "us": 157,
      "ally": 158,
      "ack": 159,
      "de": 160,
      "su": 161,
      "aw": 162,
      "ag": 163,
      "ther": 164,
      "love": 165,
      "ould": 166,
      "end": 167,
      "night": 168,
      "some": 169,
      "na": 170,
      "ks": 171,
      "mor": 172,
      "than": 173,
      "like": 174,
      "got": 175,
      "ate": 176,
      "te": 177,
      "ss": 178,
      "ie": 179,
      "time": 180,
      "ye": 181,
      "iss": 182,
      "too": 183,
      "fr": 184,
      "ink": 185,
      "ce": 186,
      "thing": 187,
      "htt": 188,
      "your": 189,
      "bo": 190,
      "quot": 191,
      "see": 192,
      "today": 193,
      "ish": 194,
      "dont": 195,
      "po": 196,
      "art": 197,
      "twit": 198,
      "ah": 199,
      "fee": 200,
      "wee": 201,
      "very": 202,
      "going": 203,
      "what": 204,
      "cant": 205,
      "http": 206,
      "fo": 207,
      "miss": 208,
      "haha": 209,
      "ion": 210,
      "pl": 211,
      "any": 212,
      "fe": 213,
      "eep": 214,
      "back": 215,
      "fin": 216,
      "ta": 217,
      "ick": 218,
      "mi": 219,
      "lol": 220,
      "if": 221,
      "can": 222,
      "ong": 223,
      "ca": 224,
      "ers": 225,
      "amp": 226,
      "know": 227,
      "want": 228,
      "ook": 229,
      "our": 230,
      "from": 231,
      "will": 232,
      "ex": 233,
      "jo": 234,
      "fu": 235,
      "gu": 236,
      "new": 237,
      "mm": 238,
      "ice": 239,
      "ple": 240,
      "il": 241,
      "atch": 242,
      "ning": 243,
      "did": 244,
      "nd": 245,
      "off": 246,
      "mu": 247,
      "sp": 248,
      "wa": 249,
      "feel": 250,
      "way": 251,
      "lu": 252,
      "had": 253,
      "ain": 254,
      "about": 255,
      "row": 256,
      "ting": 257,
      "eed": 258,
      "ive": 259,
      "gre": 260,
      "really": 261,
      "think": 262,
      "well": 263,
      "ts": 264,
      "ge": 265,
      "how": 266,
      "oh": 267,
      "ph": 268,
      "read": 269,
      "sl": 270,
      "red": 271,
      "fri": 272,
      "ent": 273,
      "home": 274,
      "pic": 275,
      "more": 276,
      "ine": 277,
      "watch": 278,
      "ess": 279,
      "fa": 280,
      "ough": 281,
      "ool": 282,
      "they": 283,
      "ite": 284,
      "still": 285,
      "need": 286,
      "ig": 287,
      "sa": 288,
      "een": 289,
      "ard": 290,
      "che": 291,
      "week": 292,
      "there": 293,
      "ind": 294,
      "tu": 295,
      "fun": 296,
      "thanks": 297,
      "ide": 298,
      "when": 299,
      "ving": 300,
      "twitter": 301,
      "hope": 302,
      "ound": 303,
      "happ": 304,
      "ww": 305,
      "come": 306,
      "last": 307,
      "king": 308,
      "aa": 309,
      "by": 310,
      "here": 311,
      "much": 312,
      "her": 313,
      "ru": 314,
      "pre": 315,
      "eve": 316,
      "ous": 317,
      "every": 318,
      "has": 319,
      "ace": 320,
      "hh": 321,
      "sleep": 322,
      "man": 323,
      "con": 324,
      "ff": 325,
      "oooo": 326,
      "gr": 327,
      "morrow": 328,
      "llow": 329,
      "then": 330,
      "ass": 331,
      "morning": 332,
      "cu": 333,
      "pr": 334,
      "ys": 335,
      "wish": 336,
      "great": 337,
      "sad": 338,
      "tomorrow": 339,
      "pro": 340,
      "sto": 341,
      "br": 342,
      "been": 343,
      "sun": 344,
      "own": 345,
      "right": 346,
      "wait": 347,
      "har": 348,
      "follow": 349,
      "twee": 350,
      "ak": 351,
      "af": 352,
      "again": 353,
      "ny": 354,
      "thats": 355,
      "friend": 356,
      "di": 357,
      "would": 358,
      "dy": 359,
      "look": 360,
      "bad": 361,
      "pu": 362,
      "bit": 363,
      "sor": 364,
      "use": 365,
      "rain": 366,
      "ber": 367,
      "mon": 368,
      "stu": 369,
      "ation": 370,
      "der": 371,
      "ble": 372,
      "lt": 373,
      "why": 374,
      "sc": 375,
      "could": 376,
      "itt": 377,
      "au": 378,
      "ready": 379,
      "per": 380,
      "ok": 381,
      "only": 382,
      "over": 383,
      "xx": 384,
      "other": 385,
      "mar": 386,
      "who": 387,
      "ster": 388,
      "say": 389,
      "she": 390,
      "show": 391,
      "bl": 392,
      "didnt": 393,
      "bet": 394,
      "happy": 395,
      "00": 396,
      "ang": 397,
      "lf": 398,
      "gon": 399,
      "sch": 400,
      "make": 401,
      "gir": 402,
      "tonight": 403,
      "though": 404,
      "sorry": 405,
      "xt": 406,
      "them": 407,
      "should": 408,
      "ase": 409,
      "down": 410,
      "head": 411,
      "bed": 412,
      "ps": 413,
      "days": 414,
      "gl": 415,
      "yes": 416,
      "play": 417,
      "were": 418,
      "lea": 419,
      "ile": 420,
      "ies": 421,
      "getting": 422,
      "try": 423,
      "nice": 424,
      "bab": 425,
      "hi": 426,
      "after": 427,
      "ga": 428,
      "um": 429,
      "girl": 430,
      "fre": 431,
      "gonna": 432,
      "may": 433,
      "yeah": 434,
      "better": 435,
      "ans": 436,
      "does": 437,
      "ms": 438,
      "ment": 439,
      "mad": 440,
      "gg": 441,
      "zz": 442,
      "el": 443,
      "yy": 444,
      "car": 445,
      "tr": 446,
      "start": 447,
      "fi": 448,
      "bro": 449,
      "watching": 450,
      "ome": 451,
      "si": 452,
      "ste": 453,
      "long": 454,
      "da": 455,
      "phone": 456,
      "ful": 457,
      "hu": 458,
      "anna": 459,
      "peo": 460,
      "school": 461,
      "app": 462,
      "hour": 463,
      "people": 464,
      "vie": 465,
      "ct": 466,
      "twitpic": 467,
      "part": 468,
      "cl": 469,
      "cause": 470,
      "pa": 471,
      "du": 472,
      "him": 473,
      "youre": 474,
      "hey": 475,
      "min": 476,
      "thank": 477,
      "kes": 478,
      "even": 479,
      "ach": 480,
      "bre": 481,
      "twitpiccom": 482,
      "ear": 483,
      "hate": 484,
      "httptwitpiccom": 485,
      "wr": 486,
      "weekend": 487,
      "age": 488,
      "esome": 489,
      "ama": 490,
      "tion": 491,
      "sup": 492,
      "tho": 493,
      "tal": 494,
      "ty": 495,
      "awesome": 496,
      "dd": 497,
      "ittle": 498,
      "ought": 499,
      "dan": 500,
      "ci": 501,
      "irst": 502,
      "next": 503,
      "never": 504,
      "soon": 505,
      "ity": 506,
      "lly": 507,
      "where": 508,
      "little": 509,
      "best": 510,
      "ton": 511,
      "life": 512,
      "ugh": 513,
      "ley": 514,
      "sha": 515,
      "ash": 516,
      "fore": 517,
      "ft": 518,
      "cra": 519,
      "his": 520,
      "cks": 521,
      "list": 522,
      "ser": 523,
      "ater": 524,
      "ner": 525,
      "vi": 526,
      "je": 527,
      "able": 528,
      "ways": 529,
      "dr": 530,
      "take": 531,
      "cou": 532,
      "tweet": 533,
      "year": 534,
      "call": 535,
      "first": 536,
      "ever": 537,
      "les": 538,
      "inter": 539,
      "sick": 540,
      "working": 541,
      "rr": 542,
      "ouse": 543,
      "most": 544,
      "let": 545,
      "hel": 546,
      "lot": 547,
      "10": 548,
      "sure": 549,
      "sho": 550,
      "dam": 551,
      "tired": 552,
      "wanna": 553,
      "mus": 554,
      "boo": 555,
      "joy": 556,
      "ream": 557,
      "eat": 558,
      "please": 559,
      "doing": 560,
      "being": 561,
      "having": 562,
      "find": 563,
      "self": 564,
      "real": 565,
      "mom": 566,
      "est": 567,
      "late": 568,
      "ort": 569,
      "cool": 570,
      "friends": 571,
      "yay": 572,
      "zing": 573,
      "sy": 574,
      "ba": 575,
      "hur": 576,
      "ii": 577,
      "hot": 578,
      "mmer": 579,
      "done": 580,
      "tor": 581,
      "feeling": 582,
      "keep": 583,
      "house": 584,
      "ooo": 585,
      "wont": 586,
      "everyone": 587,
      "won": 588,
      "always": 589,
      "bs": 590,
      "book": 591,
      "ins": 592,
      "jon": 593,
      "hell": 594,
      "big": 595,
      "already": 596,
      "wo": 597,
      "dis": 598,
      "luck": 599,
      "bir": 600,
      "tri": 601,
      "made": 602,
      "another": 603,
      "song": 604,
      "something": 605,
      "live": 606,
      "help": 607,
      "tty": 608,
      "ds": 609,
      "par": 610,
      "pt": 611,
      "fly": 612,
      "cr": 613,
      "int": 614,
      "til": 615,
      "sk": 616,
      "guys": 617,
      "cy": 618,
      "lt3": 619,
      "em": 620,
      "sin": 621,
      "cle": 622,
      "went": 623,
      "old": 624,
      "enjoy": 625,
      "ya": 626,
      "light": 627,
      "because": 628,
      "sound": 629,
      "loo": 630,
      "cit": 631,
      "blo": 632,
      "looking": 633,
      "tell": 634,
      "yet": 635,
      "hours": 636,
      "va": 637,
      "omg": 638,
      "ange": 639,
      "ia": 640,
      "30": 641,
      "vis": 642,
      "away": 643,
      "baby": 644,
      "music": 645,
      "ily": 646,
      "before": 647,
      "pretty": 648,
      "bitly": 649,
      "des": 650,
      "doesnt": 651,
      "ious": 652,
      "httpbitly": 653,
      "movie": 654,
      "summer": 655,
      "thought": 656,
      "zy": 657,
      "ja": 658,
      "comp": 659,
      "game": 660,
      "less": 661,
      "mc": 662,
      "damn": 663,
      "hard": 664,
      "amazing": 665,
      "eeee": 666,
      "gs": 667,
      "ut": 668,
      "kid": 669,
      "pen": 670,
      "maybe": 671,
      "things": 672,
      "finish": 673,
      "ju": 674,
      "trying": 675,
      "ather": 676,
      "bb": 677,
      "cer": 678,
      "star": 679,
      "listen": 680,
      "ise": 681,
      "excit": 682,
      "guess": 683,
      "tin": 684,
      "check": 685,
      "fam": 686,
      "hear": 687,
      "kind": 688,
      "att": 689,
      "12": 690,
      "swee": 691,
      "side": 692,
      "clo": 693,
      "while": 694,
      "vo": 695,
      "times": 696,
      "fuck": 697,
      "into": 698,
      "face": 699,
      "lost": 700,
      "finally": 701,
      "wow": 702,
      "coming": 703,
      "tur": 704,
      "bur": 705,
      "early": 706,
      "unch": 707,
      "friday": 708,
      "sit": 709,
      "roo": 710,
      "fl": 711,
      "ward": 712,
      "run": 713,
      "ason": 714,
      "world": 715,
      "left": 716,
      "boy": 717,
      "net": 718,
      "ture": 719,
      "give": 720,
      "cor": 721,
      "cha": 722,
      "don": 723,
      "bi": 724,
      "www": 725,
      "xo": 726,
      "ated": 727,
      "add": 728,
      "someone": 729,
      "sing": 730,
      "stuff": 731,
      "pi": 732,
      "same": 733,
      "act": 734,
      "uu": 735,
      "sat": 736,
      "ree": 737,
      "land": 738,
      "set": 739,
      "tv": 740,
      "bored": 741,
      "missed": 742,
      "line": 743,
      "post": 744,
      "actu": 745,
      "son": 746,
      "load": 747,
      "din": 748,
      "glad": 749,
      "party": 750,
      "birth": 751,
      "far": 752,
      "havent": 753,
      "sucks": 754,
      "cho": 755,
      "nothing": 756,
      "break": 757,
      "thers": 758,
      "wal": 759,
      "talk": 760,
      "two": 761,
      "weather": 762,
      "hun": 763,
      "happen": 764,
      "spe": 765,
      "lle": 766,
      "pho": 767,
      "also": 768,
      "dri": 769,
      "tra": 770,
      "later": 771,
      "ign": 772,
      "many": 773,
      "looks": 774,
      "ger": 775,
      "beau": 776,
      "ure": 777,
      "god": 778,
      "might": 779,
      "wonder": 780,
      "ats": 781,
      "stay": 782,
      "saw": 783,
      "birthday": 784,
      "httptwitpiccom6": 785,
      "ary": 786,
      "free": 787,
      "arent": 788,
      "ap": 789,
      "mr": 790,
      "hes": 791,
      "os": 792,
      "fer": 793,
      "actually": 794,
      "ank": 795,
      "iz": 796,
      "win": 797,
      "those": 798,
      "sm": 799,
      "nn": 800,
      "excited": 801,
      "ance": 802,
      "makes": 803,
      "exam": 804,
      "meet": 805,
      "vide": 806,
      "tru": 807,
      "waiting": 808,
      "ppl": 809,
      "count": 810,
      "ates": 811,
      "sw": 812,
      "isnt": 813,
      "said": 814,
      "yester": 815,
      "ris": 816,
      "bar": 817,
      "url": 818,
      "11": 819,
      "gy": 820,
      "hair": 821,
      "wel": 822,
      "cold": 823,
      "upd": 824,
      "port": 825,
      "bor": 826,
      "dad": 827,
      "until": 828,
      "since": 829,
      "ken": 830,
      "few": 831,
      "vid": 832,
      "tre": 833,
      "yesterday": 834,
      "ast": 835,
      "class": 836,
      "gotta": 837,
      "pping": 838,
      "oney": 839,
      "such": 840,
      "vin": 841,
      "mber": 842,
      "around": 843,
      "must": 844,
      "mind": 845,
      "ane": 846,
      "hahaha": 847,
      "myself": 848,
      "found": 849,
      "under": 850,
      "lin": 851,
      "photo": 852,
      "ating": 853,
      "beauti": 854,
      "gt": 855,
      "lor": 856,
      "mean": 857,
      "top": 858,
      "aww": 859,
      "leave": 860,
      "body": 861,
      "ich": 862,
      "poor": 863,
      "ones": 864,
      "ress": 865,
      "sounds": 866,
      "job": 867,
      "super": 868,
      "ding": 869,
      "put": 870,
      "name": 871,
      "least": 872,
      "their": 873,
      "ian": 874,
      "ip": 875,
      "food": 876,
      "cute": 877,
      "rest": 878,
      "monday": 879,
      "room": 880,
      "air": 881,
      "beautiful": 882,
      "till": 883,
      "whats": 884,
      "pain": 885,
      "sunday": 886,
      "wn": 887,
      "rock": 888,
      "aaaa": 889,
      "dream": 890,
      "20": 891,
      "turn": 892,
      "sweet": 893,
      "wed": 894,
      "char": 895,
      "gone": 896,
      "beli": 897,
      "ked": 898,
      "fast": 899,
      "making": 900,
      "stop": 901,
      "pers": 902,
      "cont": 903,
      "cry": 904,
      "hehe": 905,
      "ball": 906,
      "fav": 907,
      "buy": 908,
      "sim": 909,
      "shit": 910,
      "tom": 911,
      "okay": 912,
      "shes": 913,
      "mp": 914,
      "ann": 915,
      "men": 916,
      "ale": 917,
      "mail": 918,
      "io": 919,
      "vers": 920,
      "lunch": 921,
      "anything": 922,
      "missing": 923,
      "grad": 924,
      "heart": 925,
      "tiny": 926,
      "miley": 927,
      "war": 928,
      "family": 929,
      "rough": 930,
      "month": 931,
      "fan": 932,
      "cal": 933,
      "rus": 934,
      "ness": 935,
      "kill": 936,
      "med": 937,
      "almost": 938,
      "ence": 939,
      "picture": 940,
      "cre": 941,
      "woke": 942,
      "theres": 943,
      "fully": 944,
      "ici": 945,
      "ls": 946,
      "iphone": 947,
      "lad": 948,
      "wanted": 949,
      "funny": 950,
      "place": 951,
      "used": 952,
      "rep": 953,
      "ction": 954,
      "ka": 955,
      "mess": 956,
      "key": 957,
      "soooo": 958,
      "dinner": 959,
      "cof": 960,
      "listening": 961,
      "jonas": 962,
      "str": 963,
      "19": 964,
      "als": 965,
      "tot": 966,
      "study": 967,
      "believe": 968,
      "sur": 969,
      "oot": 970,
      "tweets": 971,
      "welcome": 972,
      "finished": 973,
      "hand": 974,
      "ney": 975,
      "guy": 976,
      "den": 977,
      "playing": 978,
      "forward": 979,
      "video": 980,
      "ten": 981,
      "cour": 982,
      "which": 983,
      "reme": 984,
      "thinking": 985,
      "without": 986,
      "everything": 987,
      "blog": 988,
      "anyone": 989,
      "stup": 990,
      "nor": 991,
      "mine": 992,
      "press": 993,
      "ago": 994,
      "coffee": 995,
      "dar": 996,
      "care": 997,
      "ze": 998,
      "ng": 999,
      "followers": 1000,
      "jun": 1001,
      "stupid": 1002,
      "clean": 1003,
      "gi": 1004,
      "chi": 1005,
      "ache": 1006,
      "send": 1007,
      "hor": 1008,
      "awww": 1009,
      "mac": 1010,
      "ling": 1011,
      "totally": 1012,
      "kk": 1013,
      "drink": 1014,
      "15": 1015,
      "jen": 1016,
      "these": 1017,
      "ana": 1018,
      "amer": 1019,
      "through": 1020,
      "cur": 1021,
      "hang": 1022,
      "cook": 1023,
      "view": 1024,
      "band": 1025,
      "ping": 1026,
      "outside": 1027,
      "enough": 1028,
      "weeks": 1029,
      "wasnt": 1030,
      "once": 1031,
      "ved": 1032,
      "money": 1033,
      "bum": 1034,
      "black": 1035,
      "pet": 1036,
      "httptiny": 1037,
      "wrong": 1038,
      "news": 1039,
      "13": 1040,
      "hurts": 1041,
      "anymore": 1042,
      "satur": 1043,
      "urk": 1044,
      "probab": 1045,
      "crazy": 1046,
      "came": 1047,
      "lip": 1048,
      "eee": 1049,
      "rist": 1050,
      "probably": 1051,
      "httptinyurl": 1052,
      "bye": 1053,
      "ul": 1054,
      "person": 1055,
      "train": 1056,
      "couldnt": 1057,
      "pped": 1058,
      "fall": 1059,
      "lovely": 1060,
      "sed": 1061,
      "hhhh": 1062,
      "100": 1063,
      "pay": 1064,
      "pass": 1065,
      "pm": 1066,
      "busy": 1067,
      "stand": 1068,
      "remember": 1069,
      "dog": 1070,
      "gra": 1071,
      "hit": 1072,
      "sooo": 1073,
      "arch": 1074,
      "full": 1075,
      "ei": 1076,
      "compu": 1077,
      "hmm": 1078,
      "cess": 1079,
      "tun": 1080,
      "lets": 1081,
      "sou": 1082,
      "following": 1083,
      "eating": 1084,
      "half": 1085,
      "beach": 1086,
      "open": 1087,
      "fm": 1088,
      "ker": 1089,
      "mat": 1090,
      "kids": 1091,
      "sen": 1092,
      "ake": 1093,
      "serious": 1094,
      "says": 1095,
      "reading": 1096,
      "blu": 1097,
      "cyrus": 1098,
      "py": 1099,
      "wants": 1100,
      "wear": 1101,
      "httptinyurlcom": 1102,
      "high": 1103,
      "mer": 1104,
      "cat": 1105,
      "yo": 1106,
      "itch": 1107,
      "hn": 1108,
      "whole": 1109,
      "pack": 1110,
      "ask": 1111,
      "space": 1112,
      "clu": 1113,
      "gen": 1114,
      "saturday": 1115,
      "httppl": 1116,
      "forgot": 1117,
      "offici": 1118,
      "mark": 1119,
      "taking": 1120,
      "httpplurk": 1121,
      "seen": 1122,
      "smi": 1123,
      "ist": 1124,
      "cong": 1125,
      "nu": 1126,
      "test": 1127,
      "sar": 1128,
      "town": 1129,
      "suck": 1130,
      "kinda": 1131,
      "lay": 1132,
      "ote": 1133,
      "dou": 1134,
      "plan": 1135,
      "true": 1136,
      "andy": 1137,
      "ings": 1138,
      "dec": 1139,
      "david": 1140,
      "icket": 1141,
      "using": 1142,
      "ath": 1143,
      "box": 1144,
      "jor": 1145,
      "sent": 1146,
      "woo": 1147,
      "soo": 1148,
      "chill": 1149,
      "computer": 1150,
      "both": 1151,
      "ming": 1152,
      "wind": 1153,
      "took": 1154,
      "hopefully": 1155,
      "hello": 1156,
      "iting": 1157,
      "years": 1158,
      "ina": 1159,
      "rad": 1160,
      "pick": 1161,
      "girls": 1162,
      "cuz": 1163,
      "ted": 1164,
      "wer": 1165,
      "lon": 1166,
      "200": 1167,
      "proble": 1168,
      "congr": 1169,
      "idea": 1170,
      "cial": 1171,
      "14": 1172,
      "ko": 1173,
      "nic": 1174,
      "iam": 1175,
      "theyre": 1176,
      "ky": 1177,
      "course": 1178,
      "fail": 1179,
      "ire": 1180,
      "ves": 1181,
      "kat": 1182,
      "ica": 1183,
      "ards": 1184,
      "nite": 1185,
      "lots": 1186,
      "else": 1187,
      "dra": 1188,
      "either": 1189,
      "fect": 1190,
      "ross": 1191,
      "lic": 1192,
      "john": 1193,
      "shopping": 1194,
      "leaving": 1195,
      "gar": 1196,
      "nie": 1197,
      "pics": 1198,
      "sitting": 1199,
      "concer": 1200,
      "trip": 1201,
      "lear": 1202,
      "ared": 1203,
      "hurt": 1204,
      "dro": 1205,
      "alone": 1206,
      "internet": 1207,
      "ven": 1208,
      "mic": 1209,
      "feels": 1210,
      "bri": 1211,
      "jack": 1212,
      "online": 1213,
      "lar": 1214,
      "iv": 1215,
      "bla": 1216,
      "goodnight": 1217,
      "dif": 1218,
      "bby": 1219,
      "ower": 1220,
      "ations": 1221,
      "sam": 1222,
      "defin": 1223,
      "seems": 1224,
      "email": 1225,
      "mid": 1226,
      "ages": 1227,
      "lap": 1228,
      "talking": 1229,
      "ions": 1230,
      "hung": 1231,
      "btw": 1232,
      "lma": 1233,
      "stuck": 1234,
      "ticket": 1235,
      "cup": 1236,
      "gets": 1237,
      "lady": 1238,
      "sty": 1239,
      "heard": 1240,
      "pat": 1241,
      "esday": 1242,
      "ital": 1243,
      "word": 1244,
      "office": 1245,
      "ben": 1246,
      "prom": 1247,
      "loved": 1248,
      "change": 1249,
      "tried": 1250,
      "link": 1251,
      "favor": 1252,
      "fix": 1253,
      "dead": 1254,
      "ahhh": 1255,
      "needs": 1256,
      "eas": 1257,
      "headache": 1258,
      "brothers": 1259,
      "bring": 1260,
      "mit": 1261,
      "uk": 1262,
      "ep": 1263,
      "rs": 1264,
      "twi": 1265,
      "watched": 1266,
      "rible": 1267,
      "ade": 1268,
      "raining": 1269,
      "httpplurkcomp": 1270,
      "gan": 1271,
      "cut": 1272,
      "ics": 1273,
      "oud": 1274,
      "started": 1275,
      "jay": 1276,
      "18": 1277,
      "noon": 1278,
      "thin": 1279,
      "goo": 1280,
      "interest": 1281,
      "pan": 1282,
      "facebook": 1283,
      "catch": 1284,
      "goes": 1285,
      "die": 1286,
      "tour": 1287,
      "reply": 1288,
      "seeing": 1289,
      "ring": 1290,
      "cell": 1291,
      "sal": 1292,
      "sex": 1293,
      "dj": 1294,
      "pod": 1295,
      "green": 1296,
      "xd": 1297,
      "nat": 1298,
      "walk": 1299,
      "nick": 1300,
      "mcfly": 1301,
      "lie": 1302,
      "res": 1303,
      "season": 1304,
      "rob": 1305,
      "ob": 1306,
      "ird": 1307,
      "rid": 1308,
      "water": 1309,
      "engl": 1310,
      "fine": 1311,
      "led": 1312,
      "city": 1313,
      "lucky": 1314,
      "dude": 1315,
      "fair": 1316,
      "ately": 1317,
      "quite": 1318,
      "suppo": 1319,
      "gin": 1320,
      "wake": 1321,
      "lil": 1322,
      "told": 1323,
      "24": 1324,
      "rent": 1325,
      "breakfast": 1326,
      "chris": 1327,
      "shower": 1328,
      "text": 1329,
      "quest": 1330,
      "mileycyrus": 1331,
      "xxx": 1332,
      "cover": 1333,
      "awake": 1334,
      "jam": 1335,
      "sunny": 1336,
      "chick": 1337,
      "boring": 1338,
      "june": 1339,
      "cond": 1340,
      "camp": 1341,
      "ren": 1342,
      "ey": 1343,
      "works": 1344,
      "33": 1345,
      "mal": 1346,
      "loves": 1347,
      "move": 1348,
      "mel": 1349,
      "utes": 1350,
      "seriously": 1351,
      "por": 1352,
      "ried": 1353,
      "conf": 1354,
      "tay": 1355,
      "ars": 1356,
      "berry": 1357,
      "fire": 1358,
      "gle": 1359,
      "oooooooo": 1360,
      "aking": 1361,
      "cus": 1362,
      "asl": 1363,
      "spend": 1364,
      "drive": 1365,
      "mag": 1366,
      "bra": 1367,
      "laugh": 1368,
      "boys": 1369,
      "tube": 1370,
      "broke": 1371,
      "yum": 1372,
      "update": 1373,
      "lmao": 1374,
      "ight": 1375,
      "colle": 1376,
      "nap": 1377,
      "tum": 1378,
      "minutes": 1379,
      "ahh": 1380,
      "stead": 1381,
      "illy": 1382,
      "bought": 1383,
      "ol": 1384,
      "cast": 1385,
      "av": 1386,
      "tie": 1387,
      "ki": 1388,
      "mis": 1389,
      "hungry": 1390,
      "called": 1391,
      "starting": 1392,
      "flu": 1393,
      "squ": 1394,
      "ces": 1395,
      "anyway": 1396,
      "jeal": 1397,
      "concert": 1398,
      "nch": 1399,
      "crap": 1400,
      "youll": 1401,
      "scre": 1402,
      "site": 1403,
      "reason": 1404,
      "yea": 1405,
      "grand": 1406,
      "perfect": 1407,
      "dear": 1408,
      "lax": 1409,
      "yyyy": 1410,
      "bell": 1411,
      "tely": 1412,
      "short": 1413,
      "cake": 1414,
      "afternoon": 1415,
      "asleep": 1416,
      "mes": 1417,
      "ev": 1418,
      "bout": 1419,
      "cru": 1420,
      "comple": 1421,
      "favorite": 1422,
      "jealous": 1423,
      "kin": 1424,
      "moon": 1425,
      "met": 1426,
      "sign": 1427,
      "ped": 1428,
      "ries": 1429,
      "burn": 1430,
      "sleeping": 1431,
      "jess": 1432,
      "cream": 1433,
      "fil": 1434,
      "ott": 1435,
      "shi": 1436,
      "chel": 1437,
      "dress": 1438,
      "wood": 1439,
      "alex": 1440,
      "vies": 1441,
      "roll": 1442,
      "instead": 1443,
      "worth": 1444,
      "gether": 1445,
      "mach": 1446,
      "bee": 1447,
      "cent": 1448,
      "aaa": 1449,
      "vac": 1450,
      "bday": 1451,
      "chee": 1452,
      "kn": 1453,
      "near": 1454,
      "shine": 1455,
      "17": 1456,
      "anno": 1457,
      "ban": 1458,
      "fortun": 1459,
      "gas": 1460,
      "point": 1461,
      "25": 1462,
      "vato": 1463,
      "heading": 1464,
      "cfly": 1465,
      "han": 1466,
      "stra": 1467,
      "09": 1468,
      "low": 1469,
      "tive": 1470,
      "doc": 1471,
      "pool": 1472,
      "mmm": 1473,
      "slow": 1474,
      "pink": 1475,
      "chur": 1476,
      "sigh": 1477,
      "tomm": 1478,
      "gradu": 1479,
      "16": 1480,
      "fing": 1481,
      "brow": 1482,
      "sister": 1483,
      "definite": 1484,
      "chat": 1485,
      "holi": 1486,
      "blood": 1487,
      "together": 1488,
      "wt": 1489,
      "enjoying": 1490,
      "shir": 1491,
      "lee": 1492,
      "gee": 1493,
      "join": 1494,
      "lovato": 1495,
      "mum": 1496,
      "youtube": 1497,
      "luv": 1498,
      "anne": 1499,
      "write": 1500,
      "sore": 1501,
      "running": 1502,
      "ons": 1503,
      "lli": 1504,
      "wonderful": 1505,
      "moment": 1506,
      "urs": 1507,
      "past": 1508,
      "hoping": 1509,
      "exams": 1510,
      "definitely": 1511,
      "team": 1512,
      "pray": 1513,
      "pau": 1514,
      "problem": 1515,
      "dance": 1516,
      "visit": 1517,
      "relax": 1518,
      "tou": 1519,
      "gor": 1520,
      "steph": 1521,
      "annoy": 1522,
      "ult": 1523,
      "fucking": 1524,
      "final": 1525,
      "eyes": 1526,
      "died": 1527,
      "movies": 1528,
      "blue": 1529,
      "ler": 1530,
      "via": 1531,
      "cher": 1532,
      "goin": 1533,
      "num": 1534,
      "igh": 1535,
      "mood": 1536,
      "1st": 1537,
      "sometimes": 1538,
      "httptwitpiccom7": 1539,
      "stre": 1540,
      "congrats": 1541,
      "llen": 1542,
      "brother": 1543,
      "couple": 1544,
      "cept": 1545,
      "close": 1546,
      "second": 1547,
      "church": 1548,
      "cc": 1549,
      "means": 1550,
      "comes": 1551,
      "httpwww": 1552,
      "tea": 1553,
      "hoo": 1554,
      "revis": 1555,
      "xoxo": 1556,
      "web": 1557,
      "ham": 1558,
      "tain": 1559,
      "rand": 1560,
      "leg": 1561,
      "cele": 1562,
      "ssi": 1563,
      "kick": 1564,
      "23": 1565,
      "unk": 1566,
      "happened": 1567,
      "parent": 1568,
      "mothers": 1569,
      "iso": 1570,
      "choco": 1571,
      "tommcfly": 1572,
      "shop": 1573,
      "sn": 1574,
      "page": 1575,
      "figu": 1576,
      "gard": 1577,
      "que": 1578,
      "weird": 1579,
      "fb": 1580,
      "album": 1581,
      "cd": 1582,
      "itty": 1583,
      "usu": 1584,
      "broken": 1585,
      "aint": 1586,
      "store": 1587,
      "order": 1588,
      "park": 1589,
      "bow": 1590,
      "download": 1591,
      "evening": 1592,
      "kar": 1593,
      "months": 1594,
      "account": 1595,
      "van": 1596,
      "official": 1597,
      "kim": 1598,
      "math": 1599,
      "appo": 1600,
      "story": 1601,
      "agree": 1602,
      "fish": 1603,
      "vel": 1604,
      "beat": 1605,
      "tting": 1606,
      "ray": 1607,
      "yall": 1608,
      "laptop": 1609,
      "bus": 1610,
      "unfortun": 1611,
      "ters": 1612,
      "pur": 1613,
      "yu": 1614,
      "plus": 1615,
      "vice": 1616,
      "wouldnt": 1617,
      "50": 1618,
      "homework": 1619,
      "inst": 1620,
      "chang": 1621,
      "und": 1622,
      "gym": 1623,
      "op": 1624,
      "ipod": 1625,
      "rip": 1626,
      "tim": 1627,
      "fac": 1628,
      "dm": 1629,
      "tha": 1630,
      "bon": 1631,
      "rrrr": 1632,
      "bag": 1633,
      "london": 1634,
      "taylor": 1635,
      "vs": 1636,
      "prin": 1637,
      "possi": 1638,
      "songs": 1639,
      "learn": 1640,
      "cked": 1641,
      "22": 1642,
      "meeting": 1643,
      "ced": 1644,
      "writing": 1645,
      "solu": 1646,
      "ele": 1647,
      "ano": 1648,
      "ddlovato": 1649,
      "ills": 1650,
      "pot": 1651,
      "pri": 1652,
      "lies": 1653,
      "ines": 1654,
      "lk": 1655,
      "ject": 1656,
      "english": 1657,
      "hy": 1658,
      "ssss": 1659,
      "loving": 1660,
      "knight": 1661,
      "comment": 1662,
      "fit": 1663,
      "ali": 1664,
      "white": 1665,
      "ils": 1666,
      "sub": 1667,
      "vic": 1668,
      "power": 1669,
      "differ": 1670,
      "form": 1671,
      "interesting": 1672,
      "fro": 1673,
      "ition": 1674,
      "prof": 1675,
      "bc": 1676,
      "sky": 1677,
      "uni": 1678,
      "enter": 1679,
      "ric": 1680,
      "seem": 1681,
      "case": 1682,
      "tory": 1683,
      "understand": 1684,
      "kay": 1685,
      "tickets": 1686,
      "window": 1687,
      "ns": 1688,
      "hold": 1689,
      "blip": 1690,
      "tee": 1691,
      "reci": 1692,
      "studying": 1693,
      "search": 1694,
      "thro": 1695,
      "smile": 1696,
      "60": 1697,
      "dur": 1698,
      "upload": 1699,
      "cing": 1700,
      "wit": 1701,
      "episo": 1702,
      "nin": 1703,
      "bless": 1704,
      "dun": 1705,
      "fell": 1706,
      "realiz": 1707,
      "flo": 1708,
      "wedding": 1709,
      "knew": 1710,
      "danny": 1711,
      "touch": 1712,
      "paper": 1713,
      "myspace": 1714,
      "tex": 1715,
      "answer": 1716,
      "hil": 1717,
      "chocolate": 1718,
      "ants": 1719,
      "quo": 1720,
      "ride": 1721,
      "board": 1722,
      "flight": 1723,
      "words": 1724,
      "thurs": 1725,
      "card": 1726,
      "lit": 1727,
      "ustr": 1728,
      "supposed": 1729,
      "parents": 1730,
      "qui": 1731,
      "ran": 1732,
      "three": 1733,
      "foot": 1734,
      "mou": 1735,
      "brit": 1736,
      "moving": 1737,
      "thy": 1738,
      "val": 1739,
      "sunshine": 1740,
      "shot": 1741,
      "sleepy": 1742,
      "gest": 1743,
      "webs": 1744,
      "child": 1745,
      "worst": 1746,
      "christ": 1747,
      "21": 1748,
      "pie": 1749,
      "forget": 1750,
      "lis": 1751,
      "yep": 1752,
      "ik": 1753,
      "awards": 1754,
      "lou": 1755,
      "apple": 1756,
      "rew": 1757,
      "ford": 1758,
      "za": 1759,
      "wishing": 1760,
      "sarah": 1761,
      "recor": 1762,
      "dreams": 1763,
      "mas": 1764,
      "fresh": 1765,
      "road": 1766,
      "produ": 1767,
      "dv": 1768,
      "ical": 1769,
      "saying": 1770,
      "books": 1771,
      "unfortunately": 1772,
      "tweeting": 1773,
      "graph": 1774,
      "law": 1775,
      "camer": 1776,
      "eye": 1777,
      "stor": 1778,
      "bitch": 1779,
      "ier": 1780,
      "adam": 1781,
      "bt": 1782,
      "wall": 1783,
      "sle": 1784,
      "ryan": 1785,
      "40": 1786,
      "door": 1787,
      "driving": 1788,
      "ship": 1789,
      "depress": 1790,
      "ised": 1791,
      "stress": 1792,
      "mmmm": 1793,
      "young": 1794,
      "date": 1795,
      "upset": 1796,
      "ond": 1797,
      "tech": 1798,
      "special": 1799,
      "radio": 1800,
      "garden": 1801,
      "ground": 1802,
      "hhh": 1803,
      "freak": 1804,
      "spot": 1805,
      "pictures": 1806,
      "sid": 1807,
      "bud": 1808,
      "joe": 1809,
      "mill": 1810,
      "forever": 1811,
      "appoint": 1812,
      "cos": 1813,
      "fight": 1814,
      "cleaning": 1815,
      "gun": 1816,
      "tist": 1817,
      "iled": 1818,
      "cas": 1819,
      "bat": 1820,
      "horrible": 1821,
      "90": 1822,
      "eu": 1823,
      "ught": 1824,
      "chance": 1825,
      "small": 1826,
      "easy": 1827,
      "jer": 1828,
      "pup": 1829,
      "tan": 1830,
      "dom": 1831,
      "quick": 1832,
      "pleas": 1833,
      "due": 1834,
      "gave": 1835,
      "kers": 1836,
      "followfriday": 1837,
      "fic": 1838,
      "blipfm": 1839,
      "fat": 1840,
      "iiii": 1841,
      "chic": 1842,
      "xxxx": 1843,
      "sis": 1844,
      "lier": 1845,
      "college": 1846,
      "sand": 1847,
      "swim": 1848,
      "ience": 1849,
      "sme": 1850,
      "eeps": 1851,
      "teach": 1852,
      "absolu": 1853,
      "drinking": 1854,
      "aly": 1855,
      "kiss": 1856,
      "glass": 1857,
      "sell": 1858,
      "80": 1859,
      "ef": 1860,
      "wtf": 1861,
      "fans": 1862,
      "ole": 1863,
      "safe": 1864,
      "mtv": 1865,
      "apparent": 1866,
      "hugs": 1867,
      "ooooo": 1868,
      "loc": 1869,
      "beer": 1870,
      "vote": 1871,
      "worse": 1872,
      "throat": 1873,
      "ron": 1874,
      "thx": 1875,
      "httpblipfm": 1876,
      "sta": 1877,
      "gover": 1878,
      "wash": 1879,
      "hahah": 1880,
      "worry": 1881,
      "ouch": 1882,
      "dia": 1883,
      "grow": 1884,
      "lan": 1885,
      "holiday": 1886,
      "tuesday": 1887,
      "cially": 1888,
      "rather": 1889,
      "longer": 1890,
      "cous": 1891,
      "conne": 1892,
      "kno": 1893,
      "inv": 1894,
      "hay": 1895,
      "bly": 1896,
      "voice": 1897,
      "event": 1898,
      "track": 1899,
      "apparently": 1900,
      "expe": 1901,
      "mix": 1902,
      "shirt": 1903,
      "ug": 1904,
      "yyy": 1905,
      "slept": 1906,
      "updates": 1907,
      "zza": 1908,
      "del": 1909,
      "fant": 1910,
      "scared": 1911,
      "shame": 1912,
      "shar": 1913,
      "cannot": 1914,
      "crash": 1915,
      "dang": 1916,
      "lim": 1917,
      "ended": 1918,
      "bru": 1919,
      "bas": 1920,
      "vill": 1921,
      "thinks": 1922,
      "lazy": 1923,
      "huge": 1924,
      "babe": 1925,
      "lla": 1926,
      "ue": 1927,
      "vir": 1928,
      "stick": 1929,
      "sters": 1930,
      "spent": 1931,
      "heal": 1932,
      "dig": 1933,
      "addic": 1934,
      "mother": 1935,
      "lain": 1936,
      "random": 1937,
      "amy": 1938,
      "bal": 1939,
      "hows": 1940,
      "anda": 1941,
      "nope": 1942,
      "plans": 1943,
      "hee": 1944,
      "gig": 1945,
      "google": 1946,
      "sus": 1947,
      "design": 1948,
      "ift": 1949,
      "warm": 1950,
      "log": 1951,
      "twilight": 1952,
      "ppy": 1953,
      "youve": 1954,
      "wat": 1955,
      "ited": 1956,
      "sims": 1957,
      "club": 1958,
      "earlier": 1959,
      "support": 1960,
      "spo": 1961,
      "round": 1962,
      "cam": 1963,
      "jim": 1964,
      "bay": 1965,
      "jus": 1966,
      "pop": 1967,
      "fest": 1968,
      "ering": 1969,
      "wondering": 1970,
      "lame": 1971,
      "45": 1972,
      "brand": 1973,
      "decid": 1974,
      "shows": 1975,
      "celebr": 1976,
      "matt": 1977,
      "hael": 1978,
      "kate": 1979,
      "piss": 1980,
      "wah": 1981,
      "ado": 1982,
      "zzy": 1983,
      "website": 1984,
      "remind": 1985,
      "pal": 1986,
      "wife": 1987,
      "shall": 1988,
      "hanging": 1989,
      "peace": 1990,
      "vacation": 1991,
      "lm": 1992,
      "chu": 1993,
      "front": 1994,
      "idk": 1995,
      "lone": 1996,
      "fox": 1997,
      "appreci": 1998,
      "doctor": 1999,
      "chicken": 2000,
      "def": 2001,
      "uh": 2002,
      "ican": 2003,
      "oman": 2004,
      "surpr": 2005,
      "west": 2006,
      "exact": 2007,
      "bbq": 2008,
      "poo": 2009,
      "july": 2010,
      "message": 2011,
      "deal": 2012,
      "ute": 2013,
      "thursday": 2014,
      "espe": 2015,
      "photos": 2016,
      "number": 2017,
      "wine": 2018,
      "ison": 2019,
      "current": 2020,
      "san": 2021,
      "26": 2022,
      "during": 2023,
      "cted": 2024,
      "issu": 2025,
      "gal": 2026,
      "allow": 2027,
      "len": 2028,
      "88": 2029,
      "cli": 2030,
      "different": 2031,
      "street": 2032,
      "games": 2033,
      "arri": 2034,
      "hosp": 2035,
      "shoes": 2036,
      "project": 2037,
      "jes": 2038,
      "enti": 2039,
      "dave": 2040,
      "sadly": 2041,
      "vent": 2042,
      "eh": 2043,
      "arm": 2044,
      "laure": 2045,
      "cid": 2046,
      "doll": 2047,
      "yummy": 2048,
      "inside": 2049,
      "screen": 2050,
      "looked": 2051,
      "hrs": 2052,
      "ild": 2053,
      "save": 2054,
      "deck": 2055,
      "sey": 2056,
      "ada": 2057,
      "mike": 2058,
      "yup": 2059,
      "turned": 2060,
      "bill": 2061,
      "ative": 2062,
      "pes": 2063,
      "memor": 2064,
      "sum": 2065,
      "jk": 2066,
      "77": 2067,
      "dark": 2068,
      "pc": 2069,
      "fy": 2070,
      "geous": 2071,
      "each": 2072,
      "mommy": 2073,
      "hahahaha": 2074,
      "figure": 2075,
      "lled": 2076,
      "ield": 2077,
      "especially": 2078,
      "queen": 2079,
      "mb": 2080,
      "share": 2081,
      "ses": 2082,
      "jonasbrothers": 2083,
      "pract": 2084,
      "ashley": 2085,
      "gay": 2086,
      "dio": 2087,
      "guit": 2088,
      "itll": 2089,
      "2day": 2090,
      "ties": 2091,
      "cred": 2092,
      "edu": 2093,
      "mins": 2094,
      "cheese": 2095,
      "living": 2096,
      "meant": 2097,
      "hind": 2098,
      "rel": 2099,
      "stomach": 2100,
      "liked": 2101,
      "shin": 2102,
      "felt": 2103,
      "hug": 2104,
      "bear": 2105,
      "alright": 2106,
      "bike": 2107,
      "stal": 2108,
      "thes": 2109,
      "french": 2110,
      "uuuu": 2111,
      "jan": 2112,
      "mass": 2113,
      "rainy": 2114,
      "dau": 2115,
      "sted": 2116,
      "angel": 2117,
      "argh": 2118,
      "busin": 2119,
      "pizza": 2120,
      "officially": 2121,
      "whate": 2122,
      "crack": 2123,
      "rd": 2124,
      "proud": 2125,
      "crying": 2126,
      "camera": 2127,
      "cross": 2128,
      "exper": 2129,
      "jordan": 2130,
      "gosh": 2131,
      "ai": 2132,
      "cakes": 2133,
      "packing": 2134,
      "coo": 2135,
      "sold": 2136,
      "bes": 2137,
      "rele": 2138,
      "tem": 2139,
      "episode": 2140,
      "vot": 2141,
      "business": 2142,
      "resp": 2143,
      "wedn": 2144,
      "hah": 2145,
      "ery": 2146,
      "airport": 2147,
      "absolutely": 2148,
      "httpmy": 2149,
      "mart": 2150,
      "ima": 2151,
      "ror": 2152,
      "mention": 2153,
      "dat": 2154,
      "ston": 2155,
      "graduation": 2156,
      "decided": 2157,
      "worked": 2158,
      "throw": 2159,
      "fever": 2160,
      "ging": 2161,
      "ith": 2162,
      "finals": 2163,
      "boyfriend": 2164,
      "yourself": 2165,
      "except": 2166,
      "hospital": 2167,
      "jum": 2168,
      "hubby": 2169,
      "det": 2170,
      "nights": 2171,
      "alo": 2172,
      "daught": 2173,
      "ork": 2174,
      "bath": 2175,
      "ino": 2176,
      "dest": 2177,
      "interview": 2178,
      "vy": 2179,
      "non": 2180,
      "gorgeous": 2181,
      "smell": 2182,
      "exp": 2183,
      "dc": 2184,
      "shu": 2185,
      "annoying": 2186,
      "nk": 2187,
      "cla": 2188,
      "played": 2189,
      "27": 2190,
      "99": 2191,
      "needed": 2192,
      "brad": 2193,
      "grou": 2194,
      "berg": 2195,
      "rose": 2196,
      "vegas": 2197,
      "cap": 2198,
      "guitar": 2199,
      "hanna": 2200,
      "lonely": 2201,
      "hon": 2202,
      "spir": 2203,
      "ctive": 2204,
      "krist": 2205,
      "swi": 2206,
      "market": 2207,
      "ili": 2208,
      "jb": 2209,
      "note": 2210,
      "dum": 2211,
      "hat": 2212,
      "wednesday": 2213,
      "wk": 2214,
      "dire": 2215,
      "present": 2216,
      "shoot": 2217,
      "possible": 2218,
      "gold": 2219,
      "holly": 2220,
      "michael": 2221,
      "bel": 2222,
      "keeps": 2223,
      "zzzz": 2224,
      "bucks": 2225,
      "exciting": 2226,
      "tori": 2227,
      "hmmm": 2228,
      "fact": 2229,
      "astic": 2230,
      "deser": 2231,
      "taken": 2232,
      "wishes": 2233,
      "emp": 2234,
      "bert": 2235,
      "yr": 2236,
      "mun": 2237,
      "film": 2238,
      "exactly": 2239,
      "az": 2240,
      "ens": 2241,
      "mall": 2242,
      "install": 2243,
      "feet": 2244,
      "table": 2245,
      "goodbye": 2246,
      "disappoint": 2247,
      "lent": 2248,
      "trans": 2249,
      "2nd": 2250,
      "brain": 2251,
      "color": 2252,
      "knows": 2253,
      "ically": 2254,
      "apart": 2255,
      "nyc": 2256,
      "appe": 2257,
      "ments": 2258,
      "death": 2259,
      "drunk": 2260,
      "exha": 2261,
      "scary": 2262,
      "mont": 2263,
      "mob": 2264,
      "along": 2265,
      "alot": 2266,
      "james": 2267,
      "core": 2268,
      "sexy": 2269,
      "fill": 2270,
      "ending": 2271,
      "cali": 2272,
      "starts": 2273,
      "cts": 2274,
      "hates": 2275,
      "tar": 2276,
      "ram": 2277,
      "fla": 2278,
      "max": 2279,
      "profile": 2280,
      "whatever": 2281,
      "atl": 2282,
      "service": 2283,
      "gd": 2284,
      "state": 2285,
      "major": 2286,
      "question": 2287,
      "behind": 2288,
      "moms": 2289,
      "mist": 2290,
      "walking": 2291,
      "athan": 2292,
      "mate": 2293,
      "ded": 2294,
      "aces": 2295,
      "posit": 2296,
      "iced": 2297,
      "smo": 2298,
      "exhaust": 2299,
      "oc": 2300,
      "company": 2301,
      "pens": 2302,
      "ani": 2303,
      "jason": 2304,
      "mend": 2305,
      "gram": 2306,
      "giving": 2307,
      "rick": 2308,
      "plane": 2309,
      "dle": 2310,
      "ohh": 2311,
      "happens": 2312,
      "ku": 2313,
      "2009": 2314,
      "bf": 2315,
      "gust": 2316,
      "yours": 2317,
      "soul": 2318,
      "ell": 2319,
      "realized": 2320,
      "eeeeeeee": 2321,
      "emi": 2322,
      "ita": 2323,
      "ession": 2324,
      "laur": 2325,
      "gettin": 2326,
      "omb": 2327,
      "lose": 2328,
      "ava": 2329,
      "lakers": 2330,
      "although": 2331,
      "version": 2332,
      "waking": 2333,
      "speak": 2334,
      "woman": 2335,
      "jonathan": 2336,
      "honey": 2337,
      "burnt": 2338,
      "ouble": 2339,
      "magic": 2340,
      "resu": 2341,
      "ami": 2342,
      "videos": 2343,
      "dies": 2344,
      "tween": 2345,
      "orts": 2346,
      "bug": 2347,
      "tummy": 2348,
      "liz": 2349,
      "single": 2350,
      "ooh": 2351,
      "fantastic": 2352,
      "gie": 2353,
      "tweeter": 2354,
      "vious": 2355,
      "clear": 2356,
      "lam": 2357,
      "wis": 2358,
      "country": 2359,
      "87": 2360,
      "hav": 2361,
      "ville": 2362,
      "lauren": 2363,
      "ero": 2364,
      "build": 2365,
      "clothes": 2366,
      "tis": 2367,
      "bird": 2368,
      "stat": 2369,
      "action": 2370,
      "brown": 2371,
      "killing": 2372,
      "relaxing": 2373,
      "mand": 2374,
      "hotel": 2375,
      "vol": 2376,
      "bing": 2377,
      "httptwitpiccom5": 2378,
      "inks": 2379,
      "terrible": 2380,
      "lat": 2381,
      "logy": 2382,
      "ftw": 2383,
      "thom": 2384,
      "bright": 2385,
      "oun": 2386,
      "dogs": 2387,
      "roy": 2388,
      "sug": 2389,
      "peter": 2390,
      "publ": 2391,
      "minute": 2392,
      "gging": 2393,
      "lyn": 2394,
      "kelly": 2395,
      "coz": 2396,
      "south": 2397,
      "enjoyed": 2398,
      "hus": 2399,
      "tat": 2400,
      "indeed": 2401,
      "ore": 2402,
      "psy": 2403,
      "kitty": 2404,
      "feed": 2405,
      "passed": 2406,
      "ahead": 2407,
      "huh": 2408,
      "vip": 2409,
      "posted": 2410,
      "nia": 2411,
      "mot": 2412,
      "four": 2413,
      "sele": 2414,
      "between": 2415,
      "straight": 2416,
      "arious": 2417,
      "bot": 2418,
      "info": 2419,
      "paul": 2420,
      "sss": 2421,
      "trouble": 2422,
      "cough": 2423,
      "fran": 2424,
      "apo": 2425,
      "extra": 2426,
      "ered": 2427,
      "staying": 2428,
      "block": 2429,
      "lately": 2430,
      "liver": 2431,
      "field": 2432,
      "ites": 2433,
      "josh": 2434,
      "hasnt": 2435,
      "singing": 2436,
      "zo": 2437,
      "nah": 2438,
      "icks": 2439,
      "wearing": 2440,
      "revision": 2441,
      "dying": 2442,
      "everybody": 2443,
      "history": 2444,
      "trail": 2445,
      "mir": 2446,
      "ned": 2447,
      "tons": 2448,
      "onto": 2449,
      "type": 2450,
      "bul": 2451,
      "hea": 2452,
      "gri": 2453,
      "mary": 2454,
      "nes": 2455,
      "bank": 2456,
      "wise": 2457,
      "asked": 2458,
      "unes": 2459,
      "hangover": 2460,
      "aller": 2461,
      "ark": 2462,
      "nation": 2463,
      "disney": 2464,
      "eng": 2465,
      "rrr": 2466,
      "storm": 2467,
      "bull": 2468,
      "secre": 2469,
      "dru": 2470,
      "kevin": 2471,
      "headed": 2472,
      "bun": 2473,
      "future": 2474,
      "mobile": 2475,
      "ffic": 2476,
      "bummed": 2477,
      "hill": 2478,
      "llll": 2479,
      "bloody": 2480,
      "hr": 2481,
      "congrat": 2482,
      "changed": 2483,
      "ene": 2484,
      "thereal": 2485,
      "double": 2486,
      "sea": 2487,
      "fml": 2488,
      "fingers": 2489,
      "usually": 2490,
      "miche": 2491,
      "blah": 2492,
      "28": 2493,
      "pin": 2494,
      "aco": 2495,
      "steve": 2496,
      "cident": 2497,
      "yah": 2498,
      "ener": 2499,
      "geor": 2500,
      "tumbl": 2501,
      "completely": 2502,
      "danie": 2503,
      "butter": 2504,
      "mouth": 2505,
      "pix": 2506,
      "29": 2507,
      "awful": 2508,
      "httpmyloc": 2509,
      "freaking": 2510,
      "suc": 2511,
      "drop": 2512,
      "awwww": 2513,
      "austr": 2514,
      "none": 2515,
      "currently": 2516,
      "imag": 2517,
      "begin": 2518,
      "hm": 2519,
      "group": 2520,
      "httpmylocme": 2521,
      "recom": 2522,
      "nose": 2523,
      "demi": 2524,
      "tm": 2525,
      "rece": 2526,
      "spam": 2527,
      "whos": 2528,
      "alia": 2529,
      "others": 2530,
      "httptwitpiccom4": 2531,
      "gue": 2532,
      "phones": 2533,
      "shut": 2534,
      "89": 2535,
      "bour": 2536,
      "bak": 2537,
      "swift": 2538,
      "eric": 2539,
      "lind": 2540,
      "hannah": 2541,
      "matter": 2542,
      "ruin": 2543,
      "proper": 2544,
      "heat": 2545,
      "frank": 2546,
      "watchin": 2547,
      "pee": 2548,
      "col": 2549,
      "donnie": 2550,
      "fed": 2551,
      "mur": 2552,
      "silly": 2553,
      "worried": 2554,
      "hero": 2555,
      "jeff": 2556,
      "hood": 2557,
      "moved": 2558,
      "disappointed": 2559,
      "ix": 2560,
      "wwww": 2561,
      "euro": 2562,
      "beth": 2563,
      "raid": 2564,
      "daddy": 2565,
      "channe": 2566,
      "main": 2567,
      "cow": 2568,
      "traffic": 2569,
      "grade": 2570,
      "fathers": 2571,
      "wing": 2572,
      "35": 2573,
      "pper": 2574,
      "tweetdeck": 2575,
      "fab": 2576,
      "wet": 2577,
      "rich": 2578,
      "nobody": 2579,
      "recommend": 2580,
      "llo": 2581,
      "strong": 2582,
      "itunes": 2583,
      "rocks": 2584,
      "cheer": 2585,
      "lake": 2586,
      "base": 2587,
      "ari": 2588,
      "caught": 2589,
      "dev": 2590,
      "cs": 2591,
      "sale": 2592,
      "licious": 2593,
      "skin": 2594,
      "mama": 2595,
      "closed": 2596,
      "pissed": 2597,
      "abo": 2598,
      "suggest": 2599,
      "quiet": 2600,
      "daughter": 2601,
      "hands": 2602,
      "hum": 2603,
      "epic": 2604,
      "somewhere": 2605,
      "archie": 2606,
      "avail": 2607,
      "ends": 2608,
      "66": 2609,
      "85": 2610,
      "gro": 2611,
      "shout": 2612,
      "fixed": 2613,
      "nearly": 2614,
      "juli": 2615,
      "spending": 2616,
      "dvd": 2617,
      "awn": 2618,
      "mari": 2619,
      "master": 2620,
      "exhausted": 2621,
      "blast": 2622,
      "rie": 2623,
      "oooooo": 2624,
      "square": 2625,
      "ony": 2626,
      "chillin": 2627,
      "dunno": 2628,
      "ior": 2629,
      "gggg": 2630,
      "tumblr": 2631,
      "anim": 2632,
      "neigh": 2633,
      "shouldnt": 2634,
      "soft": 2635,
      "div": 2636,
      "sort": 2637,
      "desk": 2638,
      "lling": 2639,
      "flow": 2640,
      "sense": 2641,
      "appreciate": 2642,
      "windows": 2643,
      "tit": 2644,
      "ply": 2645,
      "normal": 2646,
      "ws": 2647,
      "takes": 2648,
      "problems": 2649,
      "neck": 2650,
      "style": 2651,
      "sting": 2652,
      "aged": 2653,
      "dir": 2654,
      "mee": 2655,
      "miles": 2656,
      "maths": 2657,
      "gn": 2658,
      "review": 2659,
      "push": 2660,
      "fur": 2661,
      "match": 2662,
      "lex": 2663,
      "paris": 2664,
      "ud": 2665,
      "dancing": 2666,
      "unt": 2667,
      "sooooo": 2668,
      "husband": 2669,
      "oops": 2670,
      "usual": 2671,
      "puppy": 2672,
      "thru": 2673,
      "som": 2674,
      "beck": 2675,
      "86": 2676,
      "stopped": 2677,
      "ax": 2678,
      "schedu": 2679,
      "braz": 2680,
      "jour": 2681,
      "blackberry": 2682,
      "hone": 2683,
      "wild": 2684,
      "nc": 2685,
      "middle": 2686,
      "copy": 2687,
      "aks": 2688,
      "itten": 2689,
      "thoughts": 2690,
      "ature": 2691,
      "nal": 2692,
      "soph": 2693,
      "lines": 2694,
      "las": 2695,
      "eres": 2696,
      "code": 2697,
      "congratul": 2698,
      "aha": 2699,
      "bble": 2700,
      "ets": 2701,
      "pair": 2702,
      "flat": 2703,
      "75": 2704,
      "rac": 2705,
      "aaaaaaaa": 2706,
      "doin": 2707,
      "boss": 2708,
      "b4": 2709,
      "social": 2710,
      "etc": 2711,
      "attle": 2712,
      "race": 2713,
      "legs": 2714,
      "sel": 2715,
      "background": 2716,
      "kris": 2717,
      "bummer": 2718,
      "consid": 2719,
      "70": 2720,
      "sher": 2721,
      "accident": 2722,
      "verse": 2723,
      "talent": 2724,
      "record": 2725,
      "william": 2726,
      "contin": 2727,
      "snow": 2728,
      "tery": 2729,
      "moo": 2730,
      "ual": 2731,
      "lks": 2732,
      "media": 2733,
      "swimming": 2734,
      "dee": 2735,
      "sie": 2736,
      "ied": 2737,
      "83": 2738,
      "bang": 2739,
      "lead": 2740,
      "earth": 2741,
      "chicago": 2742,
      "blow": 2743,
      "training": 2744,
      "laying": 2745,
      "mt": 2746,
      "click": 2747,
      "planning": 2748,
      "hills": 2749,
      "lov": 2750,
      "bare": 2751,
      "ew": 2752,
      "frog": 2753,
      "doubt": 2754,
      "practice": 2755,
      "dry": 2756,
      "nam": 2757,
      "milk": 2758,
      "clou": 2759,
      "success": 2760,
      "ial": 2761,
      "ung": 2762,
      "mini": 2763,
      "starbucks": 2764,
      "secret": 2765,
      "classes": 2766,
      "hilarious": 2767,
      "taste": 2768,
      "certain": 2769,
      "orig": 2770,
      "ji": 2771,
      "france": 2772,
      "scott": 2773,
      "available": 2774,
      "bey": 2775,
      "degre": 2776,
      "calling": 2777,
      "bac": 2778,
      "cancell": 2779,
      "ett": 2780,
      "asha": 2781,
      "import": 2782,
      "paid": 2783,
      "egg": 2784,
      "cri": 2785,
      "issa": 2786,
      "dnt": 2787,
      "prob": 2788,
      "hen": 2789,
      "icle": 2790,
      "todays": 2791,
      "emily": 2792,
      "gf": 2793,
      "often": 2794,
      "anned": 2795,
      "lab": 2796,
      "brid": 2797,
      "harry": 2798,
      "favour": 2799,
      "princess": 2800,
      "ents": 2801,
      "spring": 2802,
      "shaun": 2803,
      "pants": 2804,
      "holy": 2805,
      "knee": 2806,
      "marie": 2807,
      "step": 2808,
      "series": 2809,
      "jones": 2810,
      "ged": 2811,
      "pas": 2812,
      "peeps": 2813,
      "icul": 2814,
      "buddy": 2815,
      "congratulations": 2816,
      "teeth": 2817,
      "five": 2818,
      "ara": 2819,
      "likes": 2820,
      "failed": 2821,
      "httpblipfm7": 2822,
      "gener": 2823,
      "sil": 2824,
      "tch": 2825,
      "ala": 2826,
      "idi": 2827,
      "ator": 2828,
      "mitchel": 2829,
      "rah": 2830,
      "wy": 2831,
      "confused": 2832,
      "station": 2833,
      "extre": 2834,
      "choice": 2835,
      "trek": 2836,
      "fra": 2837,
      "phe": 2838,
      "ek": 2839,
      "joey": 2840,
      "sir": 2841,
      "stru": 2842,
      "katie": 2843,
      "tted": 2844,
      "nom": 2845,
      "ida": 2846,
      "ador": 2847,
      "wards": 2848,
      "geek": 2849,
      "laund": 2850,
      "quotthe": 2851,
      "glasses": 2852,
      "dddd": 2853,
      "mex": 2854,
      "program": 2855,
      "followed": 2856,
      "badly": 2857,
      "scot": 2858,
      "price": 2859,
      "cousin": 2860,
      "laundry": 2861,
      "island": 2862,
      "loss": 2863,
      "ible": 2864,
      "trailer": 2865,
      "american": 2866,
      "inclu": 2867,
      "asking": 2868,
      "sni": 2869,
      "isa": 2870,
      "qual": 2871,
      "coll": 2872,
      "putting": 2873,
      "sugar": 2874,
      "msn": 2875,
      "wha": 2876,
      "attack": 2877,
      "trend": 2878,
      "bff": 2879,
      "cab": 2880,
      "vous": 2881,
      "inten": 2882,
      "wwwtweeter": 2883,
      "chan": 2884,
      "studio": 2885,
      "cin": 2886,
      "34": 2887,
      "wil": 2888,
      "bk": 2889,
      "buck": 2890,
      "mrs": 2891,
      "libr": 2892,
      "dropped": 2893,
      "channel": 2894,
      "york": 2895,
      "ahhhh": 2896,
      "inal": 2897,
      "australia": 2898,
      "daily": 2899,
      "learning": 2900,
      "jac": 2901,
      "bott": 2902,
      "000": 2903,
      "sending": 2904,
      "84": 2905,
      "covered": 2906,
      "return": 2907,
      "nis": 2908,
      "cost": 2909,
      "mode": 2910,
      "plz": 2911,
      "thunder": 2912,
      "dentist": 2913,
      "falling": 2914,
      "dge": 2915,
      "honest": 2916,
      "gutted": 2917,
      "cats": 2918,
      "ahhhhh": 2919,
      "dor": 2920,
      "perfor": 2921,
      "scri": 2922,
      "lberg": 2923,
      "suppose": 2924,
      "chuck": 2925,
      "dep": 2926,
      "sisters": 2927,
      "nan": 2928,
      "floor": 2929,
      "xbox": 2930,
      "wheres": 2931,
      "mare": 2932,
      "ideas": 2933,
      "loads": 2934,
      "irl": 2935,
      "69": 2936,
      "bunch": 2937,
      "six": 2938,
      "personal": 2939,
      "complete": 2940,
      "cancelled": 2941,
      "germany": 2942,
      "sol": 2943,
      "wich": 2944,
      "feelin": 2945,
      "darn": 2946,
      "hom": 2947,
      "helping": 2948,
      "ising": 2949,
      "aga": 2950,
      "yard": 2951,
      "august": 2952,
      "musso": 2953,
      "entire": 2954,
      "midnight": 2955,
      "loud": 2956,
      "swine": 2957,
      "anyways": 2958,
      "dads": 2959,
      "checking": 2960,
      "woot": 2961,
      "tumblrcom": 2962,
      "court": 2963,
      "iter": 2964,
      "httpplurkcompx": 2965,
      "cree": 2966,
      "crow": 2967,
      "nervous": 2968,
      "kidding": 2969,
      "08": 2970,
      "stic": 2971,
      "bio": 2972,
      "gged": 2973,
      "thomas": 2974,
      "issues": 2975,
      "tttt": 2976,
      "file": 2977,
      "davidarchie": 2978,
      "3rd": 2979,
      "evil": 2980,
      "lv": 2981,
      "aud": 2982,
      "keeping": 2983,
      "wahlberg": 2984,
      "depressed": 2985,
      "extreme": 2986,
      "versity": 2987,
      "44": 2988,
      "ese": 2989,
      "hook": 2990,
      "muse": 2991,
      "afraid": 2992,
      "lied": 2993,
      "everyday": 2994,
      "promise": 2995,
      "55": 2996,
      "bother": 2997,
      "httpis": 2998,
      "ices": 2999,
      "important": 3000,
      "syste": 3001,
      "scr": 3002,
      "zi": 3003,
      "temp": 3004,
      "scar": 3005,
      "reach": 3006,
      "impress": 3007,
      "lack": 3008,
      "trust": 3009,
      "js": 3010,
      "freakin": 3011,
      "gab": 3012,
      "tos": 3013,
      "delicious": 3014,
      "aur": 3015,
      "gers": 3016,
      "public": 3017,
      "deep": 3018,
      "cting": 3019,
      "bean": 3020,
      "north": 3021,
      "finding": 3022,
      "straw": 3023,
      "mam": 3024,
      "swe": 3025,
      "bob": 3026,
      "twittering": 3027,
      "span": 3028,
      "bin": 3029,
      "breaking": 3030,
      "ladies": 3031,
      "thanx": 3032,
      "become": 3033,
      "strange": 3034,
      "bulous": 3035,
      "httptumblrcom": 3036,
      "phys": 3037,
      "pensive": 3038,
      "local": 3039,
      "killed": 3040,
      "fault": 3041,
      "iron": 3042,
      "pol": 3043,
      "babys": 3044,
      "nicole": 3045,
      "zzle": 3046,
      "donniewahlberg": 3047,
      "cried": 3048,
      "kr": 3049,
      "gger": 3050,
      "lton": 3051,
      "fash": 3052,
      "cheers": 3053,
      "tooth": 3054,
      "allowed": 3055,
      "icy": 3056,
      "stage": 3057,
      "afford": 3058,
      "buying": 3059,
      "twitters": 3060,
      "allen": 3061,
      "tag": 3062,
      "zen": 3063,
      "rap": 3064,
      "selena": 3065,
      "hous": 3066,
      "dot": 3067,
      "positive": 3068,
      "andrew": 3069,
      "telling": 3070,
      "arrived": 3071,
      "calls": 3072,
      "stri": 3073,
      "oooh": 3074,
      "losing": 3075,
      "travel": 3076,
      "smart": 3077,
      "tony": 3078,
      "unless": 3079,
      "aster": 3080,
      "weight": 3081,
      "morow": 3082,
      "ggy": 3083,
      "flor": 3084,
      "lord": 3085,
      "youd": 3086,
      "workout": 3087,
      "kitch": 3088,
      "jr": 3089,
      "kit": 3090,
      "wick": 3091,
      "area": 3092,
      "ski": 3093,
      "teen": 3094,
      "lover": 3095,
      "anywhere": 3096,
      "itting": 3097,
      "assign": 3098,
      "against": 3099,
      "shell": 3100,
      "stephen": 3101,
      "jane": 3102,
      "expensive": 3103,
      "justin": 3104,
      "checked": 3105,
      "nad": 3106,
      "spr": 3107,
      "simple": 3108,
      "annoyed": 3109,
      "allerg": 3110,
      "hol": 3111,
      "tran": 3112,
      "misses": 3113,
      "energy": 3114,
      "organ": 3115,
      "however": 3116,
      "festiv": 3117,
      "shift": 3118,
      "corn": 3119,
      "jas": 3120,
      "quoti": 3121,
      "wen": 3122,
      "science": 3123,
      "updated": 3124,
      "depressing": 3125,
      "candy": 3126,
      "lts": 3127,
      "corre": 3128,
      "brian": 3129,
      "pls": 3130,
      "weve": 3131,
      "tweeps": 3132,
      "happening": 3133,
      "ret": 3134,
      "tough": 3135,
      "lif": 3136,
      "essay": 3137,
      "cookies": 3138,
      "entertain": 3139,
      "gent": 3140,
      "rey": 3141,
      "opp": 3142,
      "twice": 3143,
      "gaz": 3144,
      "respon": 3145,
      "thor": 3146,
      "ety": 3147,
      "joke": 3148,
      "sunburn": 3149,
      "cooking": 3150,
      "million": 3151,
      "jonathanr": 3152,
      "tam": 3153,
      "juice": 3154,
      "iness": 3155,
      "3d": 3156,
      "cudd": 3157,
      "outta": 3158,
      "folks": 3159,
      "aus": 3160,
      "fli": 3161,
      "gotten": 3162,
      "iii": 3163,
      "sushi": 3164,
      "somebody": 3165,
      "mornin": 3166,
      "appro": 3167,
      "favourite": 3168,
      "rol": 3169,
      "finger": 3170,
      "yi": 3171,
      "jonathanrknight": 3172,
      "95": 3173,
      "england": 3174,
      "bass": 3175,
      "ini": 3176,
      "crappy": 3177,
      "experience": 3178,
      "switch": 3179,
      "fabulous": 3180,
      "butt": 3181,
      "showing": 3182,
      "rot": 3183,
      "flash": 3184,
      "empty": 3185,
      "graphy": 3186,
      "ien": 3187,
      "frustr": 3188,
      "fashion": 3189,
      "wome": 3190,
      "hall": 3191,
      "shed": 3192,
      "heres": 3193,
      "ference": 3194,
      "diet": 3195,
      "ost": 3196,
      "velo": 3197,
      "tonite": 3198,
      "oom": 3199,
      "added": 3200,
      "library": 3201,
      "ctr": 3202,
      "alive": 3203,
      "ampamp": 3204,
      "woohoo": 3205,
      "bread": 3206,
      "cir": 3207,
      "slight": 3208,
      "brazil": 3209,
      "cash": 3210,
      "e3": 3211,
      "zed": 3212,
      "los": 3213,
      "ppin": 3214,
      "nnnn": 3215,
      "ffin": 3216,
      "weekends": 3217,
      "yer": 3218,
      "brought": 3219,
      "wii": 3220,
      "charac": 3221,
      "74": 3222,
      "purple": 3223,
      "arr": 3224,
      "soc": 3225,
      "grrr": 3226,
      "couch": 3227,
      "76": 3228,
      "andre": 3229,
      "mez": 3230,
      "human": 3231,
      "stayed": 3232,
      "acy": 3233,
      "athon": 3234,
      "imagine": 3235,
      "httptumblrcomx": 3236,
      "fc": 3237,
      "wrote": 3238,
      "productive": 3239,
      "ros": 3240,
      "coast": 3241,
      "ctions": 3242,
      "gunna": 3243,
      "kept": 3244,
      "direct": 3245,
      "ox": 3246,
      "wanting": 3247,
      "noooo": 3248,
      "japan": 3249,
      "fort": 3250,
      "excell": 3251,
      "speed": 3252,
      "total": 3253,
      "ities": 3254,
      "fear": 3255,
      "talked": 3256,
      "tle": 3257,
      "machine": 3258,
      "sometime": 3259,
      "messages": 3260,
      "piece": 3261,
      "button": 3262,
      "flying": 3263,
      "aj": 3264,
      "apps": 3265,
      "bella": 3266,
      "user": 3267,
      "eeeee": 3268,
      "cand": 3269,
      "mile": 3270,
      "eff": 3271,
      "gift": 3272,
      "winter": 3273,
      "anni": 3274,
      "famous": 3275,
      "report": 3276,
      "sli": 3277,
      "ime": 3278,
      "x3": 3279,
      "ory": 3280,
      "spl": 3281,
      "recent": 3282,
      "nails": 3283,
      "fave": 3284,
      "imma": 3285,
      "britt": 3286,
      "tree": 3287,
      "golf": 3288,
      "kitchen": 3289,
      "chap": 3290,
      "gah": 3291,
      "tempt": 3292,
      "32": 3293,
      "cass": 3294,
      "ders": 3295,
      "mul": 3296,
      "toast": 3297,
      "follower": 3298,
      "sweetie": 3299,
      "hehehe": 3300,
      "bec": 3301,
      "ao": 3302,
      "turning": 3303,
      "drinks": 3304,
      "81": 3305,
      "cousins": 3306,
      "fru": 3307,
      "soup": 3308,
      "fle": 3309,
      "boat": 3310,
      "jimmy": 3311,
      "ize": 3312,
      "session": 3313,
      "reli": 3314,
      "access": 3315,
      "dden": 3316,
      "champ": 3317,
      "bunny": 3318,
      "fry": 3319,
      "texas": 3320,
      "reed": 3321,
      "lock": 3322,
      "tears": 3323,
      "player": 3324,
      "drama": 3325,
      "ave": 3326,
      "swear": 3327,
      "leigh": 3328,
      "suff": 3329,
      "wings": 3330,
      "ased": 3331,
      "noticed": 3332,
      "ec": 3333,
      "lily": 3334,
      "eli": 3335,
      "illa": 3336,
      "terri": 3337,
      "finale": 3338,
      "chester": 3339,
      "ism": 3340,
      "haps": 3341,
      "stars": 3342,
      "liter": 3343,
      "excellent": 3344,
      "pig": 3345,
      "ffy": 3346,
      "adorable": 3347,
      "stone": 3348,
      "tweeted": 3349,
      "imp": 3350,
      "commun": 3351,
      "system": 3352,
      "ohhh": 3353,
      "grr": 3354,
      "scream": 3355,
      "anta": 3356,
      "07": 3357,
      "canada": 3358,
      "gur": 3359,
      "ggie": 3360,
      "obvious": 3361,
      "aar": 3362,
      "prep": 3363,
      "brilli": 3364,
      "unders": 3365,
      "choo": 3366,
      "ived": 3367,
      "fake": 3368,
      "nx": 3369,
      "option": 3370,
      "flick": 3371,
      "athe": 3372,
      "america": 3373,
      "ordered": 3374,
      "obs": 3375,
      "vet": 3376,
      "httpy": 3377,
      "inese": 3378,
      "rom": 3379,
      "pres": 3380,
      "tors": 3381,
      "ides": 3382,
      "jordanknight": 3383,
      "93": 3384,
      "cere": 3385,
      "itz": 3386,
      "stair": 3387,
      "kirst": 3388,
      "tmr": 3389,
      "picked": 3390,
      "werent": 3391,
      "delay": 3392,
      "laughing": 3393,
      "orange": 3394,
      "size": 3395,
      "barely": 3396,
      "92": 3397,
      "hs": 3398,
      "cance": 3399,
      "spect": 3400,
      "release": 3401,
      "children": 3402,
      "tiv": 3403,
      "aust": 3404,
      "loy": 3405,
      "acting": 3406,
      "boston": 3407,
      "angry": 3408,
      "battery": 3409,
      "pleasure": 3410,
      "anth": 3411,
      "shee": 3412,
      "syd": 3413,
      "wol": 3414,
      "ugly": 3415,
      "bie": 3416,
      "hop": 3417,
      "teacher": 3418,
      "94": 3419,
      "icky": 3420,
      "sau": 3421,
      "rum": 3422,
      "everywhere": 3423,
      "goodness": 3424,
      "diffic": 3425,
      "meg": 3426,
      "washing": 3427,
      "bis": 3428,
      "east": 3429,
      "sig": 3430,
      "chinese": 3431,
      "catching": 3432,
      "brilliant": 3433,
      "incred": 3434,
      "expect": 3435,
      "williams": 3436,
      "stack": 3437,
      "nikk": 3438,
      "invite": 3439,
      "national": 3440,
      "susan": 3441,
      "aro": 3442,
      "nasty": 3443,
      "phil": 3444,
      "dougie": 3445,
      "mitchelmusso": 3446,
      "dent": 3447,
      "heh": 3448,
      "helps": 3449,
      "lights": 3450,
      "lmfa": 3451,
      "jump": 3452,
      "status": 3453,
      "aches": 3454,
      "suit": 3455,
      "alley": 3456,
      "httptwitpiccom3": 3457,
      "httpyfrog": 3458,
      "wu": 3459,
      "artist": 3460,
      "vision": 3461,
      "natur": 3462,
      "craving": 3463,
      "michelle": 3464,
      "ains": 3465,
      "perhaps": 3466,
      "stream": 3467,
      "sudden": 3468,
      "dammit": 3469,
      "shan": 3470,
      "custom": 3471,
      "tear": 3472,
      "mission": 3473,
      "clock": 3474,
      "kel": 3475,
      "odd": 3476,
      "turns": 3477,
      "soccer": 3478,
      "wl": 3479,
      "tiff": 3480,
      "rained": 3481,
      "given": 3482,
      "140": 3483,
      "toes": 3484,
      "eel": 3485,
      "shoo": 3486,
      "poin": 3487,
      "makeup": 3488,
      "500": 3489,
      "hd": 3490,
      "lives": 3491,
      "82": 3492,
      "ount": 3493,
      "sever": 3494,
      "holidays": 3495,
      "jamie": 3496,
      "deserve": 3497,
      "bgt": 3498,
      "marathon": 3499,
      "cheap": 3500,
      "quoth": 3501,
      "europe": 3502,
      "neighbor": 3503,
      "rise": 3504,
      "addicted": 3505,
      "inspir": 3506,
      "era": 3507,
      "football": 3508,
      "dumb": 3509,
      "jj": 3510,
      "ame": 3511,
      "bam": 3512,
      "gomez": 3513,
      "ility": 3514,
      "dirty": 3515,
      "ager": 3516,
      "article": 3517,
      "develo": 3518,
      "hurting": 3519,
      "smoo": 3520,
      "schedule": 3521,
      "bers": 3522,
      "weak": 3523,
      "ggg": 3524,
      "beauty": 3525,
      "surprise": 3526,
      "atm": 3527,
      "trim": 3528,
      "scratch": 3529,
      "ras": 3530,
      "meal": 3531,
      "sharing": 3532,
      "issue": 3533,
      "monkey": 3534,
      "treat": 3535,
      "mn": 3536,
      "pir": 3537,
      "rup": 3538,
      "lesson": 3539,
      "uuu": 3540,
      "ral": 3541,
      "rub": 3542,
      "nooo": 3543,
      "vamp": 3544,
      "mondays": 3545,
      "gb": 3546,
      "ico": 3547,
      "avy": 3548,
      "health": 3549,
      "cot": 3550,
      "ads": 3551,
      "keys": 3552,
      "trave": 3553,
      "healthy": 3554,
      "whoo": 3555,
      "rious": 3556,
      "expected": 3557,
      "httpyfrogcom": 3558,
      "letting": 3559,
      "ific": 3560,
      "women": 3561,
      "babies": 3562,
      "surger": 3563,
      "79": 3564,
      "nkot": 3565,
      "summ": 3566,
      "reality": 3567,
      "smith": 3568,
      "01": 3569,
      "places": 3570,
      "easier": 3571,
      "78": 3572,
      "married": 3573,
      "comments": 3574,
      "festival": 3575,
      "ashi": 3576,
      "dele": 3577,
      "awa": 3578,
      "grey": 3579,
      "shots": 3580,
      "oz": 3581,
      "tb": 3582,
      "anie": 3583,
      "somehow": 3584,
      "known": 3585,
      "nightmare": 3586,
      "prefer": 3587,
      "stairs": 3588,
      "nur": 3589,
      "bottle": 3590,
      "figured": 3591,
      "spanish": 3592,
      "pun": 3593,
      "anti": 3594,
      "ider": 3595,
      "dist": 3596,
      "rachel": 3597,
      "dale": 3598,
      "aim": 3599,
      "aren": 3600,
      "slee": 3601,
      "request": 3602,
      "asy": 3603,
      "alltime": 3604,
      "sav": 3605,
      "venture": 3606,
      "tx": 3607,
      "ient": 3608,
      "atten": 3609,
      "rice": 3610,
      "planned": 3611,
      "glas": 3612,
      "buzz": 3613,
      "father": 3614,
      "realize": 3615,
      "ges": 3616,
      "taylorswift": 3617,
      "erc": 3618,
      "rome": 3619,
      "gross": 3620,
      "ette": 3621,
      "rubb": 3622,
      "server": 3623,
      "born": 3624,
      "squarespace": 3625,
      "xi": 3626,
      "mount": 3627,
      "wide": 3628,
      "soci": 3629,
      "antic": 3630,
      "zoo": 3631,
      "ises": 3632,
      "ups": 3633,
      "shining": 3634,
      "pit": 3635,
      "anytime": 3636,
      "apartment": 3637,
      "cking": 3638,
      "lookin": 3639,
      "model": 3640,
      "heck": 3641,
      "tattoo": 3642,
      "difficult": 3643,
      "pon": 3644,
      "bubble": 3645,
      "acey": 3646,
      "electr": 3647,
      "billy": 3648,
      "gif": 3649,
      "ches": 3650,
      "across": 3651,
      "jesus": 3652,
      "surgery": 3653,
      "possibly": 3654,
      "blon": 3655,
      "setting": 3656,
      "tte": 3657,
      "compl": 3658,
      "spi": 3659,
      "aka": 3660,
      "memories": 3661,
      "voted": 3662,
      "taylorswift13": 3663,
      "lemon": 3664,
      "101": 3665,
      "sist": 3666,
      "ahaha": 3667,
      "workin": 3668,
      "inson": 3669,
      "jenny": 3670,
      "yuck": 3671,
      "offer": 3672,
      "messed": 3673,
      "results": 3674,
      "rout": 3675,
      "adi": 3676,
      "pull": 3677,
      "wolf": 3678,
      "sandwich": 3679,
      "complain": 3680,
      "signed": 3681,
      "4th": 3682,
      "chas": 3683,
      "dish": 3684,
      "distr": 3685,
      "degrees": 3686,
      "ona": 3687,
      "sf": 3688,
      "123": 3689,
      "florida": 3690,
      "toy": 3691,
      "nies": 3692,
      "stew": 3693,
      "gives": 3694,
      "extremely": 3695,
      "sport": 3696,
      "matthe": 3697,
      "foo": 3698,
      "river": 3699,
      "ished": 3700,
      "cards": 3701,
      "paint": 3702,
      "shad": 3703,
      "ghost": 3704,
      "pret": 3705,
      "jp": 3706,
      "oper": 3707,
      "2morrow": 3708,
      "hearing": 3709,
      "400": 3710,
      "noo": 3711,
      "1000": 3712,
      "interested": 3713,
      "heavy": 3714,
      "worries": 3715,
      "managed": 3716,
      "letter": 3717,
      "fuckin": 3718,
      "heaven": 3719,
      "kir": 3720,
      "quit": 3721,
      "grace": 3722,
      "sniff": 3723,
      "cable": 3724,
      "truly": 3725,
      "mz": 3726,
      "blessed": 3727,
      "notice": 3728,
      "appear": 3729,
      "contest": 3730,
      "heather": 3731,
      "ughh": 3732,
      "nas": 3733,
      "sports": 3734,
      "waste": 3735,
      "phew": 3736,
      "tone": 3737,
      "ury": 3738,
      "quote": 3739,
      "lying": 3740,
      "perry": 3741,
      "finishing": 3742,
      "vv": 3743,
      "creative": 3744,
      "deta": 3745,
      "caro": 3746,
      "flowers": 3747,
      "65": 3748,
      "hollywood": 3749,
      "avo": 3750,
      "zer": 3751,
      "bron": 3752,
      "drag": 3753,
      "aid": 3754,
      "amber": 3755,
      "simply": 3756,
      "connection": 3757,
      "txt": 3758,
      "30am": 3759,
      "ruined": 3760,
      "httpisgd": 3761,
      "ib": 3762,
      "sour": 3763,
      "meh": 3764,
      "clar": 3765,
      "posting": 3766,
      "lovin": 3767,
      "emot": 3768,
      "girlfriend": 3769,
      "grab": 3770,
      "megan": 3771,
      "adder": 3772,
      "tyre": 3773,
      "blocked": 3774,
      "coach": 3775,
      "ux": 3776,
      "advice": 3777,
      "magaz": 3778,
      "lived": 3779,
      "burger": 3780,
      "donal": 3781,
      "control": 3782,
      "cine": 3783,
      "iculous": 3784,
      "spa": 3785,
      "kh": 3786,
      "pha": 3787,
      "chilling": 3788,
      "pour": 3789,
      "cape": 3790,
      "questions": 3791,
      "awe": 3792,
      "wire": 3793,
      "blame": 3794,
      "motiv": 3795,
      "bury": 3796,
      "auto": 3797,
      "mostly": 3798,
      "nkotb": 3799,
      "painting": 3800,
      "amand": 3801,
      "termin": 3802,
      "pete": 3803,
      "nee": 3804,
      "zzz": 3805,
      "broad": 3806,
      "center": 3807,
      "regu": 3808,
      "fucked": 3809,
      "patt": 3810,
      "iran": 3811,
      "lmfao": 3812,
      "bomb": 3813,
      "umm": 3814,
      "nz": 3815,
      "error": 3816,
      "sna": 3817,
      "ert": 3818,
      "uses": 3819,
      "arms": 3820,
      "shitty": 3821,
      "gtgt": 3822,
      "yrs": 3823,
      "asap": 3824,
      "compet": 3825,
      "balls": 3826,
      "awhile": 3827,
      "oce": 3828,
      "active": 3829,
      "wave": 3830,
      "manage": 3831,
      "links": 3832,
      "jet": 3833,
      "launch": 3834,
      "64": 3835,
      "spin": 3836,
      "original": 3837,
      "holl": 3838,
      "tht": 3839,
      "sean": 3840,
      "walked": 3841,
      "hw": 3842,
      "3g": 3843,
      "pear": 3844,
      "leaves": 3845,
      "300": 3846,
      "ilove": 3847,
      "guil": 3848,
      "latest": 3849,
      "decis": 3850,
      "pere": 3851,
      "lynn": 3852,
      "everyones": 3853,
      "drew": 3854,
      "ched": 3855,
      "lia": 3856,
      "abt": 3857,
      "biz": 3858,
      "decide": 3859,
      "cherry": 3860,
      "grandma": 3861,
      "f1": 3862,
      "accept": 3863,
      "ddd": 3864,
      "trending": 3865,
      "fg": 3866,
      "pad": 3867,
      "silver": 3868,
      "bn": 3869,
      "tight": 3870,
      "rt": 3871,
      "wan": 3872,
      "goss": 3873,
      "convers": 3874,
      "amaz": 3875,
      "lal": 3876,
      "thum": 3877,
      "aaay": 3878,
      "stock": 3879,
      "idiot": 3880,
      "macbook": 3881,
      "revising": 3882,
      "biggest": 3883,
      "crossed": 3884,
      "califor": 3885,
      "alltimelow": 3886,
      "urgh": 3887,
      "male": 3888,
      "boom": 3889,
      "nit": 3890,
      "truth": 3891,
      "gam": 3892,
      "xy": 3893,
      "ify": 3894,
      "announ": 3895,
      "hilton": 3896,
      "celebrate": 3897,
      "massive": 3898,
      "chip": 3899,
      "pulled": 3900,
      "truck": 3901,
      "wend": 3902,
      "bree": 3903,
      "oood": 3904,
      "baseball": 3905,
      "dre": 3906,
      "ril": 3907,
      "thankyou": 3908,
      "dawn": 3909,
      "pow": 3910,
      "rab": 3911,
      "tip": 3912,
      "prepar": 3913,
      "dais": 3914,
      "cookie": 3915,
      "credit": 3916,
      "transform": 3917,
      "fellow": 3918,
      "iling": 3919,
      "learned": 3920,
      "ict": 3921,
      "german": 3922,
      "laura": 3923,
      "beginning": 3924,
      "idol": 3925,
      "closer": 3926,
      "building": 3927,
      "george": 3928,
      "pages": 3929,
      "level": 3930,
      "rush": 3931,
      "print": 3932,
      "process": 3933,
      "contact": 3934,
      "emails": 3935,
      "episodes": 3936,
      "ius": 3937,
      "nut": 3938,
      "pra": 3939,
      "alan": 3940,
      "mith": 3941,
      "sydney": 3942,
      "sne": 3943,
      "ware": 3944,
      "otherwise": 3945,
      "robert": 3946,
      "reminds": 3947,
      "cul": 3948,
      "explain": 3949,
      "thisis": 3950,
      "mani": 3951,
      "toni": 3952,
      "iest": 3953,
      "performan": 3954,
      "bask": 3955,
      "kee": 3956,
      "rin": 3957,
      "forum": 3958,
      "cock": 3959,
      "conference": 3960,
      "nerd": 3961,
      "slightly": 3962,
      "attention": 3963,
      "fs": 3964,
      "mates": 3965,
      "jects": 3966,
      "thee": 3967,
      "veron": 3968,
      "diversity": 3969,
      "clim": 3970,
      "kie": 3971,
      "erd": 3972,
      "reg": 3973,
      "reco": 3974,
      "usa": 3975,
      "network": 3976,
      "praying": 3977,
      "bacon": 3978,
      "31": 3979,
      "od": 3980,
      "tail": 3981,
      "updating": 3982,
      "obviously": 3983,
      "salad": 3984,
      "rate": 3985,
      "arts": 3986,
      "feature": 3987,
      "painful": 3988,
      "cro": 3989,
      "fred": 3990,
      "hid": 3991,
      "lem": 3992,
      "nei": 3993,
      "craig": 3994,
      "mah": 3995,
      "xox": 3996,
      "wicked": 3997,
      "delet": 3998,
      "jenni": 3999,
      "360": 4000,
      "repe": 4001,
      "jenn": 4002,
      "miser": 4003,
      "jessica": 4004,
      "dh": 4005,
      "itu": 4006,
      "pump": 4007,
      "plu": 4008,
      "anybody": 4009,
      "packed": 4010,
      "vor": 4011,
      "faith": 4012,
      "names": 4013,
      "simon": 4014,
      "tennis": 4015,
      "micro": 4016,
      "literally": 4017,
      "bah": 4018,
      "rite": 4019,
      "host": 4020,
      "kas": 4021,
      "hella": 4022,
      "smh": 4023,
      "medi": 4024,
      "phili": 4025,
      "senior": 4026,
      "ridiculous": 4027,
      "knowing": 4028,
      "jobs": 4029,
      "research": 4030,
      "katy": 4031,
      "third": 4032,
      "erin": 4033,
      "hopes": 4034,
      "tele": 4035,
      "pill": 4036,
      "slu": 4037,
      "topic": 4038,
      "chair": 4039,
      "doctors": 4040,
      "snu": 4041,
      "deb": 4042,
      "richard": 4043,
      "lang": 4044,
      "dos": 4045,
      "correct": 4046,
      "lisa": 4047,
      "alco": 4048,
      "adv": 4049,
      "adventure": 4050,
      "commer": 4051,
      "cale": 4052,
      "challen": 4053,
      "aaaaa": 4054,
      "regular": 4055,
      "2nite": 4056,
      "surv": 4057,
      "montana": 4058,
      "birds": 4059,
      "cris": 4060,
      "desper": 4061,
      "gtlt": 4062,
      "replies": 4063,
      "limit": 4064,
      "73": 4065,
      "ffe": 4066,
      "regre": 4067,
      "deli": 4068,
      "handle": 4069,
      "multi": 4070,
      "alarm": 4071,
      "alie": 4072,
      "hugh": 4073,
      "booo": 4074,
      "quality": 4075,
      "bli": 4076,
      "dust": 4077,
      "tix": 4078,
      "kins": 4079,
      "older": 4080,
      "potter": 4081,
      "dall": 4082,
      "ora": 4083,
      "softw": 4084,
      "shy": 4085,
      "ttt": 4086,
      "moro": 4087,
      "hhhhhhhh": 4088,
      "kristen": 4089,
      "uncle": 4090,
      "nuts": 4091,
      "natural": 4092,
      "pies": 4093,
      "duck": 4094,
      "mim": 4095,
      "ense": 4096,
      "everytime": 4097,
      "wars": 4098,
      "arie": 4099,
      "alas": 4100,
      "upgrade": 4101,
      "ustream": 4102,
      "exist": 4103,
      "deleted": 4104,
      "software": 4105,
      "igno": 4106,
      "conan": 4107,
      "transformers": 4108,
      "geo": 4109,
      "ears": 4110,
      "md": 4111,
      "phy": 4112,
      "72": 4113,
      "rage": 4114,
      "plant": 4115,
      "broo": 4116,
      "cars": 4117,
      "pier": 4118,
      "confir": 4119,
      "atic": 4120,
      "belle": 4121,
      "seat": 4122,
      "opening": 4123,
      "jersey": 4124,
      "belly": 4125,
      "spy": 4126,
      "client": 4127,
      "divine": 4128,
      "adri": 4129,
      "erson": 4130,
      "theyll": 4131,
      "lt333": 4132,
      "eeeeee": 4133,
      "pound": 4134,
      "toe": 4135,
      "meat": 4136,
      "yellow": 4137,
      "cancer": 4138,
      "stories": 4139,
      "hurry": 4140,
      "daniel": 4141,
      "gurl": 4142,
      "counting": 4143,
      "joined": 4144,
      "priv": 4145,
      "fighting": 4146,
      "cone": 4147,
      "whit": 4148,
      "wifi": 4149,
      "california": 4150,
      "bits": 4151,
      "rof": 4152,
      "mandy": 4153,
      "sab": 4154,
      "soooooo": 4155,
      "kicked": 4156,
      "whe": 4157,
      "mia": 4158,
      "91": 4159,
      "sux": 4160,
      "jose": 4161,
      "bourne": 4162,
      "colour": 4163,
      "amanda": 4164,
      "grass": 4165,
      "angels": 4166,
      "ably": 4167,
      "lley": 4168,
      "quickly": 4169,
      "restaur": 4170,
      "surprised": 4171,
      "fection": 4172,
      "scene": 4173,
      "steal": 4174,
      "spell": 4175,
      "wisdom": 4176,
      "regi": 4177,
      "wins": 4178,
      "stan": 4179,
      "aye": 4180,
      "chin": 4181,
      "cuse": 4182,
      "perez": 4183,
      "gain": 4184,
      "sion": 4185,
      "swo": 4186,
      "liking": 4187,
      "blank": 4188,
      "alyss": 4189,
      "boot": 4190,
      "freezing": 4191,
      "neither": 4192,
      "eaten": 4193,
      "crush": 4194,
      "grocer": 4195,
      "fruit": 4196,
      "ening": 4197,
      "insane": 4198,
      "zomb": 4199,
      "ees": 4200,
      "ander": 4201,
      "kyle": 4202,
      "stressed": 4203,
      "nood": 4204,
      "ardashi": 4205,
      "heads": 4206,
      "posts": 4207,
      "fool": 4208,
      "nnn": 4209,
      "victori": 4210,
      "crashed": 4211,
      "mouse": 4212,
      "glo": 4213,
      "prince": 4214,
      "bast": 4215,
      "recently": 4216,
      "ners": 4217,
      "pac": 4218,
      "prayers": 4219,
      "hole": 4220,
      "likely": 4221,
      "emma": 4222,
      "gossip": 4223,
      "nathan": 4224,
      "teh": 4225,
      "chase": 4226,
      "crew": 4227,
      "impro": 4228,
      "godd": 4229,
      "invited": 4230,
      "smooth": 4231,
      "doors": 4232,
      "ae": 4233,
      "jd": 4234,
      "httpplurkcomp11": 4235,
      "rit": 4236,
      "cafe": 4237,
      "nl": 4238,
      "kell": 4239,
      "term": 4240,
      "versary": 4241,
      "esp": 4242,
      "brook": 4243,
      "chips": 4244,
      "avoid": 4245,
      "yeh": 4246,
      "ittin": 4247,
      "monster": 4248,
      "heyy": 4249,
      "tips": 4250,
      "gress": 4251,
      "anger": 4252,
      "riding": 4253,
      "points": 4254,
      "dallas": 4255,
      "42": 4256,
      "decent": 4257,
      "beta": 4258,
      "philly": 4259,
      "glor": 4260,
      "jazz": 4261,
      "darling": 4262,
      "reck": 4263,
      "goodmorning": 4264,
      "britney": 4265,
      "memory": 4266,
      "presentation": 4267,
      "sundays": 4268,
      "downtown": 4269,
      "addercom": 4270,
      "bugs": 4271,
      "shake": 4272,
      "hardly": 4273,
      "lando": 4274,
      "wwwtweeteraddercom": 4275,
      "museum": 4276,
      "zu": 4277,
      "httptrim": 4278,
      "premi": 4279,
      "classic": 4280,
      "saved": 4281,
      "whoa": 4282,
      "slowly": 4283,
      "pure": 4284,
      "sym": 4285,
      "shirts": 4286,
      "performance": 4287,
      "aun": 4288,
      "issy": 4289,
      "sucked": 4290,
      "kt": 4291,
      "magazine": 4292,
      "filled": 4293,
      "smoke": 4294,
      "stewart": 4295,
      "agu": 4296,
      "hahahah": 4297,
      "selenagomez": 4298,
      "visiting": 4299,
      "metro": 4300,
      "banana": 4301,
      "kisses": 4302,
      "claire": 4303,
      "aunt": 4304,
      "loser": 4305,
      "muffin": 4306,
      "blind": 4307,
      "situ": 4308,
      "blues": 4309,
      "draw": 4310,
      "doo": 4311,
      "cavs": 4312,
      "excuse": 4313,
      "properly": 4314,
      "wooo": 4315,
      "nel": 4316,
      "flower": 4317,
      "cloudy": 4318,
      "awh": 4319,
      "org": 4320,
      "inelli": 4321,
      "respond": 4322,
      "pd": 4323,
      "tro": 4324,
      "havin": 4325,
      "standing": 4326,
      "philipp": 4327,
      "activ": 4328,
      "winning": 4329,
      "eno": 4330,
      "ocean": 4331,
      "gaga": 4332,
      "lc": 4333,
      "atar": 4334,
      "assignment": 4335,
      "bite": 4336,
      "shann": 4337,
      "plac": 4338,
      "realised": 4339,
      "fancy": 4340,
      "choose": 4341,
      "sd": 4342,
      "zone": 4343,
      "tweetsg": 4344,
      "inn": 4345,
      "leno": 4346,
      "chell": 4347,
      "tab": 4348,
      "coke": 4349,
      "ankle": 4350,
      "05": 4351,
      "invol": 4352,
      "notes": 4353,
      "miami": 4354,
      "horse": 4355,
      "bry": 4356,
      "thunders": 4357,
      "youu": 4358,
      "seattle": 4359,
      "attend": 4360,
      "96": 4361,
      "itor": 4362,
      "mg": 4363,
      "essed": 4364,
      "gr8": 4365,
      "clue": 4366,
      "italy": 4367,
      "impressed": 4368,
      "curious": 4369,
      "perio": 4370,
      "remembered": 4371,
      "icated": 4372,
      "jeans": 4373,
      "ized": 4374,
      "dressed": 4375,
      "jere": 4376,
      "score": 4377,
      "mons": 4378,
      "jame": 4379,
      "marketing": 4380,
      "allergies": 4381,
      "theme": 4382,
      "nove": 4383,
      "fied": 4384,
      "honestly": 4385,
      "ebay": 4386,
      "lah": 4387,
      "uploading": 4388,
      "nh": 4389,
      "charge": 4390,
      "testing": 4391,
      "picking": 4392,
      "basket": 4393,
      "nj": 4394,
      "icon": 4395,
      "missin": 4396,
      "haircut": 4397,
      "dougiemcfly": 4398,
      "isha": 4399,
      "discus": 4400,
      "dys": 4401,
      "guest": 4402,
      "rubbish": 4403,
      "acts": 4404,
      "mich": 4405,
      "kan": 4406,
      "beg": 4407,
      "spark": 4408,
      "student": 4409,
      "screwed": 4410,
      "jar": 4411,
      "nar": 4412,
      "paying": 4413,
      "texting": 4414,
      "austin": 4415,
      "vr": 4416,
      "bobby": 4417,
      "indy": 4418,
      "toronto": 4419,
      "facinelli": 4420,
      "anniversary": 4421,
      "gary": 4422,
      "ffle": 4423,
      "prote": 4424,
      "bigger": 4425,
      "lp": 4426,
      "wok": 4427,
      "eral": 4428,
      "palm": 4429,
      "oli": 4430,
      "retweet": 4431,
      "secon": 4432,
      "exerc": 4433,
      "details": 4434,
      "36": 4435,
      "youn": 4436,
      "wid": 4437,
      "recording": 4438,
      "5am": 4439,
      "recover": 4440,
      "locked": 4441,
      "pub": 4442,
      "gling": 4443,
      "downloading": 4444,
      "growing": 4445,
      "ays": 4446,
      "force": 4447,
      "faster": 4448,
      "breath": 4449,
      "preparing": 4450,
      "insom": 4451,
      "httptweetsg": 4452,
      "smiling": 4453,
      "sep": 4454,
      "huhu": 4455,
      "httpplurkcom": 4456,
      "nik": 4457,
      "71": 4458,
      "gnight": 4459,
      "wes": 4460,
      "tooo": 4461,
      "orlando": 4462,
      "member": 4463,
      "himself": 4464,
      "thunderstor": 4465,
      "battle": 4466,
      "hawa": 4467,
      "ching": 4468,
      "lau": 4469,
      "whenever": 4470,
      "helped": 4471,
      "sara": 4472,
      "ctor": 4473,
      "greet": 4474,
      "inspiration": 4475,
      "hed": 4476,
      "ilt": 4477,
      "shel": 4478,
      "sweat": 4479,
      "ption": 4480,
      "focus": 4481,
      "cupcakes": 4482,
      "certainly": 4483,
      "tryin": 4484,
      "stoked": 4485,
      "bedtime": 4486,
      "bbie": 4487,
      "chelsea": 4488,
      "china": 4489,
      "agreed": 4490,
      "blink": 4491,
      "myspacecom": 4492,
      "techno": 4493,
      "strawberry": 4494,
      "sile": 4495,
      "tic": 4496,
      "sight": 4497,
      "06": 4498,
      "dex": 4499,
      "langu": 4500,
      "eggs": 4501,
      "moz": 4502,
      "jessic": 4503,
      "jee": 4504,
      "punch": 4505,
      "oring": 4506,
      "mcin": 4507,
      "lun": 4508,
      "rehear": 4509,
      "spain": 4510,
      "aaah": 4511,
      "seconds": 4512,
      "ually": 4513,
      "uts": 4514,
      "antly": 4515,
      "nail": 4516,
      "corner": 4517,
      "bridge": 4518,
      "daw": 4519,
      "tes": 4520,
      "uck": 4521,
      "alice": 4522,
      "sem": 4523,
      "jake": 4524,
      "sites": 4525,
      "demo": 4526,
      "hip": 4527,
      "68": 4528,
      "tire": 4529,
      "award": 4530,
      "saving": 4531,
      "cloud": 4532,
      "vod": 4533,
      "piano": 4534,
      "continue": 4535,
      "blonde": 4536,
      "rat": 4537,
      "stin": 4538,
      "buff": 4539,
      "spread": 4540,
      "vee": 4541,
      "seven": 4542,
      "speaking": 4543,
      "connect": 4544,
      "mars": 4545,
      "farm": 4546,
      "smells": 4547,
      "kitten": 4548,
      "refresh": 4549,
      "chemist": 4550,
      "parade": 4551,
      "peterfacinelli": 4552,
      "replace": 4553,
      "cullen": 4554,
      "spee": 4555,
      "gear": 4556,
      "april": 4557,
      "boooo": 4558,
      "embar": 4559,
      "woop": 4560,
      "besides": 4561,
      "suggestions": 4562,
      "selves": 4563,
      "mj": 4564,
      "ughhh": 4565,
      "virtu": 4566,
      "hadnt": 4567,
      "6am": 4568,
      "uber": 4569,
      "miserable": 4570,
      "amount": 4571,
      "revise": 4572,
      "mbers": 4573,
      "wers": 4574,
      "writer": 4575,
      "johnny": 4576,
      "lb": 4577,
      "bottom": 4578,
      "ht": 4579,
      "httpustream": 4580,
      "spider": 4581,
      "httptwitpiccom6q": 4582,
      "panda": 4583,
      "martin": 4584,
      "aaron": 4585,
      "guilty": 4586,
      "reall": 4587,
      "address": 4588,
      "kkkk": 4589,
      "snack": 4590,
      "digital": 4591,
      "sneak": 4592,
      "restaurant": 4593,
      "hai": 4594,
      "vert": 4595,
      "iro": 4596,
      "twin": 4597,
      "lucy": 4598,
      "received": 4599,
      "terminator": 4600,
      "imo": 4601,
      "pock": 4602,
      "els": 4603,
      "hitting": 4604,
      "pancakes": 4605,
      "camping": 4606,
      "editing": 4607,
      "iti": 4608,
      "image": 4609,
      "rude": 4610,
      "momma": 4611,
      "tests": 4612,
      "ito": 4613,
      "looo": 4614,
      "blogspot": 4615,
      "gow": 4616,
      "admit": 4617,
      "within": 4618,
      "medic": 4619,
      "ira": 4620,
      "indian": 4621,
      "named": 4622,
      "podcast": 4623,
      "employ": 4624,
      "97": 4625,
      "yl": 4626,
      "sof": 4627,
      "sales": 4628,
      "bros": 4629,
      "hearts": 4630,
      "snee": 4631,
      "tml": 4632,
      "cis": 4633,
      "jill": 4634,
      "tered": 4635,
      "gp": 4636,
      "ths": 4637,
      "awk": 4638,
      "popu": 4639,
      "spirit": 4640,
      "ckey": 4641,
      "steven": 4642,
      "nty": 4643,
      "bands": 4644,
      "changing": 4645,
      "pota": 4646,
      "crystal": 4647,
      "tmrw": 4648,
      "alcohol": 4649,
      "gang": 4650,
      "iff": 4651,
      "mental": 4652,
      "data": 4653,
      "httpmylocme2": 4654,
      "ardashian": 4655,
      "idy": 4656,
      "flickr": 4657,
      "flet": 4658,
      "xp": 4659,
      "phi": 4660,
      "akes": 4661,
      "clouds": 4662,
      "pean": 4663,
      "poker": 4664,
      "intro": 4665,
      "cupcake": 4666,
      "bathroom": 4667,
      "beyond": 4668,
      "noooooooo": 4669,
      "nowhere": 4670,
      "screw": 4671,
      "houston": 4672,
      "mcintyre": 4673,
      "yn": 4674,
      "continu": 4675,
      "hawaii": 4676,
      "ional": 4677,
      "berries": 4678,
      "killer": 4679,
      "ireland": 4680,
      "tshirt": 4681,
      "ull": 4682,
      "const": 4683,
      "fairy": 4684,
      "nys": 4685,
      "fried": 4686,
      "harder": 4687,
      "chatting": 4688,
      "dick": 4689,
      "km": 4690,
      "yd": 4691,
      "raz": 4692,
      "polit": 4693,
      "toma": 4694,
      "rainbow": 4695,
      "burned": 4696,
      "released": 4697,
      "philippines": 4698,
      "lll": 4699,
      "whis": 4700,
      "diva": 4701,
      "trad": 4702,
      "keyboard": 4703,
      "bound": 4704,
      "atleast": 4705,
      "irish": 4706,
      "chr": 4707,
      "scare": 4708,
      "98": 4709,
      "fal": 4710,
      "comfor": 4711,
      "atest": 4712,
      "animal": 4713,
      "flip": 4714,
      "zac": 4715,
      "bags": 4716,
      "signing": 4717,
      "bones": 4718,
      "bbc": 4719,
      "content": 4720,
      "kore": 4721,
      "dannymcfly": 4722,
      "consider": 4723,
      "sauce": 4724,
      "ena": 4725,
      "carter": 4726,
      "breathe": 4727,
      "tions": 4728,
      "voting": 4729,
      "mil": 4730,
      "vas": 4731,
      "poet": 4732,
      "cure": 4733,
      "naked": 4734,
      "rules": 4735,
      "iley": 4736,
      "zero": 4737,
      "theat": 4738,
      "union": 4739,
      "stole": 4740,
      "difference": 4741,
      "5th": 4742,
      "theart": 4743,
      "cycle": 4744,
      "2010": 4745,
      "pla": 4746,
      "kings": 4747,
      "007": 4748,
      "jewel": 4749,
      "httptinyurlcomc": 4750,
      "goood": 4751,
      "ffff": 4752,
      "followcom": 4753,
      "avatar": 4754,
      "skype": 4755,
      "cuddle": 4756,
      "gall": 4757,
      "convin": 4758,
      "audio": 4759,
      "lina": 4760,
      "bowl": 4761,
      "becca": 4762,
      "delete": 4763,
      "ez": 4764,
      "thri": 4765,
      "mmmmm": 4766,
      "wasted": 4767,
      "tweetie": 4768,
      "jean": 4769,
      "musical": 4770,
      "robin": 4771,
      "firefox": 4772,
      "section": 4773,
      "chef": 4774,
      "tweeters": 4775,
      "ggle": 4776,
      "mums": 4777,
      "pai": 4778,
      "todd": 4779,
      "states": 4780,
      "ashed": 4781,
      "starving": 4782,
      "volu": 4783,
      "considering": 4784,
      "situation": 4785,
      "67": 4786,
      "econ": 4787,
      "vit": 4788,
      "comin": 4789,
      "fold": 4790,
      "migra": 4791,
      "greatest": 4792,
      "happiness": 4793,
      "freed": 4794,
      "cia": 4795,
      "based": 4796,
      "virgin": 4797,
      "general": 4798,
      "vampire": 4799,
      "fir": 4800,
      "hide": 4801,
      "amo": 4802,
      "goal": 4803,
      "raw": 4804,
      "wordpress": 4805,
      "leon": 4806,
      "nothin": 4807,
      "parties": 4808,
      "burning": 4809,
      "basically": 4810,
      "mie": 4811,
      "threw": 4812,
      "haa": 4813,
      "desp": 4814,
      "mistake": 4815,
      "nw": 4816,
      "tick": 4817,
      "hem": 4818,
      "amps": 4819,
      "mcdonal": 4820,
      "gru": 4821,
      "vey": 4822,
      "carry": 4823,
      "electric": 4824,
      "sr": 4825,
      "7am": 4826,
      "lyr": 4827,
      "rawr": 4828,
      "deliver": 4829,
      "rule": 4830,
      "danger": 4831,
      "attempt": 4832,
      "haz": 4833,
      "mornings": 4834,
      "applic": 4835,
      "runs": 4836,
      "gm": 4837,
      "edward": 4838,
      "idge": 4839,
      "joel": 4840,
      "gum": 4841,
      "written": 4842,
      "ilar": 4843,
      "cue": 4844,
      "booked": 4845,
      "create": 4846,
      "explo": 4847,
      "result": 4848,
      "period": 4849,
      "04": 4850,
      "cles": 4851,
      "woooo": 4852,
      "inting": 4853,
      "jackson": 4854,
      "tiffany": 4855,
      "private": 4856,
      "bian": 4857,
      "sac": 4858,
      "sco": 4859,
      "plenty": 4860,
      "replied": 4861,
      "migraine": 4862,
      "thi": 4863,
      "shorts": 4864,
      "several": 4865,
      "tout": 4866,
      "dean": 4867,
      "trace": 4868,
      "boyle": 4869,
      "yoga": 4870,
      "patient": 4871,
      "massage": 4872,
      "dare": 4873,
      "karen": 4874,
      "meds": 4875,
      "large": 4876,
      "patrick": 4877,
      "appointment": 4878,
      "wwwtweeterfollowcom": 4879,
      "oop": 4880,
      "suddenly": 4881,
      "conversation": 4882,
      "pos": 4883,
      "tax": 4884,
      "peoples": 4885,
      "aah": 4886,
      "rem": 4887,
      "assu": 4888,
      "tila": 4889,
      "comedy": 4890,
      "beats": 4891,
      "lum": 4892,
      "tommorow": 4893,
      "tune": 4894,
      "wolver": 4895,
      "ket": 4896,
      "err": 4897,
      "bradie": 4898,
      "bid": 4899,
      "india": 4900,
      "wouldve": 4901,
      "bleed": 4902,
      "paula": 4903,
      "wd": 4904,
      "lawn": 4905,
      "express": 4906,
      "loose": 4907,
      "emm": 4908,
      "gc": 4909,
      "tz": 4910,
      "tood": 4911,
      "longest": 4912,
      "jail": 4913,
      "planet": 4914,
      "hv": 4915,
      "jc": 4916,
      "yey": 4917,
      "marks": 4918,
      "ggin": 4919,
      "feelings": 4920,
      "castle": 4921,
      "opt": 4922,
      "awwwww": 4923,
      "gil": 4924,
      "hp": 4925,
      "icing": 4926,
      "friendly": 4927,
      "yyyyyyyy": 4928,
      "picnic": 4929,
      "genius": 4930,
      "agh": 4931,
      "refer": 4932,
      "tomorrows": 4933,
      "dragon": 4934,
      "plusk": 4935,
      "rains": 4936,
      "charger": 4937,
      "4am": 4938,
      "dates": 4939,
      "quiz": 4940,
      "function": 4941,
      "bone": 4942,
      "dub": 4943,
      "hayfever": 4944,
      "related": 4945,
      "aplusk": 4946,
      "talkin": 4947,
      "files": 4948,
      "shooting": 4949,
      "whether": 4950,
      "blogspotcom": 4951,
      "morris": 4952,
      "chest": 4953,
      "tues": 4954,
      "shoe": 4955,
      "enix": 4956,
      "usion": 4957,
      "probs": 4958,
      "mond": 4959,
      "boots": 4960,
      "jeremy": 4961,
      "thnx": 4962,
      "respect": 4963,
      "neg": 4964,
      "tweep": 4965,
      "diddy": 4966,
      "thinkin": 4967,
      "appreciated": 4968,
      "jesse": 4969,
      "journey": 4970,
      "grocery": 4971,
      "3am": 4972,
      "grrrrr": 4973,
      "showed": 4974,
      "aussie": 4975,
      "cruise": 4976,
      "delayed": 4977,
      "melo": 4978,
      "holding": 4979,
      "ots": 4980,
      "suppor": 4981,
      "changes": 4982,
      "chemistry": 4983,
      "pand": 4984,
      "swed": 4985,
      "iiiiiiii": 4986,
      "03": 4987,
      "mk": 4988,
      "taco": 4989,
      "ref": 4990,
      "omfg": 4991,
      "progress": 4992,
      "drove": 4993,
      "downloaded": 4994,
      "ike": 4995,
      "someday": 4996,
      "pose": 4997,
      "cricket": 4998,
      "meaning": 4999,
      "httpplurkcompy": 5000,
      "searching": 5001,
      "von": 5002,
      "hal": 5003,
      "beans": 5004,
      "whil": 5005,
      "pical": 5006,
      "vids": 5007,
      "apolog": 5008,
      "var": 5009,
      "ille": 5010,
      "brings": 5011,
      "shock": 5012,
      "golden": 5013,
      "character": 5014,
      "izing": 5015,
      "pity": 5016,
      "sla": 5017,
      "tof": 5018,
      "gray": 5019,
      "hating": 5020,
      "pus": 5021,
      "rust": 5022,
      "nell": 5023,
      "makin": 5024,
      "awsome": 5025,
      "thern": 5026,
      "grl": 5027,
      "schools": 5028,
      "parts": 5029,
      "texts": 5030,
      "pred": 5031,
      "cole": 5032,
      "creepy": 5033,
      "itself": 5034,
      "lime": 5035,
      "httptw": 5036,
      "bris": 5037,
      "vio": 5038,
      "garage": 5039,
      "italian": 5040,
      "swollen": 5041,
      "woken": 5042,
      "gic": 5043,
      "kev": 5044,
      "coco": 5045,
      "pson": 5046,
      "celebrating": 5047,
      "tend": 5048,
      "webb": 5049,
      "pepper": 5050,
      "sons": 5051,
      "grown": 5052,
      "uv": 5053,
      "hockey": 5054,
      "actual": 5055,
      "relation": 5056,
      "incredible": 5057,
      "43": 5058,
      "mann": 5059,
      "shouldve": 5060,
      "julie": 5061,
      "matthew": 5062,
      "elle": 5063,
      "charlie": 5064,
      "bringing": 5065,
      "ians": 5066,
      "ors": 5067,
      "impossible": 5068,
      "comic": 5069,
      "common": 5070,
      "exc": 5071,
      "selling": 5072,
      "tall": 5073,
      "mikey": 5074,
      "fridays": 5075,
      "blogs": 5076,
      "mcr": 5077,
      "yan": 5078,
      "emer": 5079,
      "cinema": 5080,
      "wag": 5081,
      "greg": 5082,
      "theyve": 5083,
      "papers": 5084,
      "cleaned": 5085,
      "cnt": 5086,
      "ij": 5087,
      "becoming": 5088,
      "ssy": 5089,
      "bowling": 5090,
      "installed": 5091,
      "afr": 5092,
      "kl": 5093,
      "nce": 5094,
      "infection": 5095,
      "haw": 5096,
      "ours": 5097,
      "shoulder": 5098,
      "lifes": 5099,
      "chad": 5100,
      "pil": 5101,
      "youquot": 5102,
      "lid": 5103,
      "tel": 5104,
      "tape": 5105,
      "closing": 5106,
      "joeymcintyre": 5107,
      "lyrics": 5108,
      "kry": 5109,
      "ague": 5110,
      "dents": 5111,
      "rare": 5112,
      "zie": 5113,
      "skool": 5114,
      "gokey": 5115,
      "drawing": 5116,
      "xxxxxxxx": 5117,
      "diviney": 5118,
      "aver": 5119,
      "emo": 5120,
      "lett": 5121,
      "bling": 5122,
      "lt33": 5123,
      "listened": 5124,
      "brooke": 5125,
      "speech": 5126,
      "fletcher": 5127,
      "mw": 5128,
      "meee": 5129,
      "crunch": 5130,
      "cj": 5131,
      "snap": 5132,
      "cious": 5133,
      "norm": 5134,
      "giant": 5135,
      "frustrated": 5136,
      "characters": 5137,
      "repeat": 5138,
      "orn": 5139,
      "hack": 5140,
      "disco": 5141,
      "roof": 5142,
      "melbourne": 5143,
      "wolverine": 5144,
      "eri": 5145,
      "shaw": 5146,
      "woah": 5147,
      "septe": 5148,
      "37": 5149,
      "icecream": 5150,
      "response": 5151,
      "nikki": 5152,
      "gate": 5153,
      "hart": 5154,
      "bestie": 5155,
      "photography": 5156,
      "mcdonalds": 5157,
      "whilst": 5158,
      "jade": 5159,
      "ination": 5160,
      "adding": 5161,
      "mummy": 5162,
      "rofl": 5163,
      "38": 5164,
      "gia": 5165,
      "oy": 5166,
      "tok": 5167,
      "oof": 5168,
      "frm": 5169,
      "brace": 5170,
      "obsessed": 5171,
      "tn": 5172,
      "inc": 5173,
      "seats": 5174,
      "gran": 5175,
      "projects": 5176,
      "aching": 5177,
      "target": 5178,
      "script": 5179,
      "september": 5180,
      "cig": 5181,
      "eek": 5182,
      "gods": 5183,
      "trick": 5184,
      "182": 5185,
      "opin": 5186,
      "destroy": 5187,
      "japanese": 5188,
      "apt": 5189,
      "punk": 5190,
      "vm": 5191,
      "ruby": 5192,
      "breaks": 5193,
      "pengu": 5194,
      "language": 5195,
      "eva": 5196,
      "gmail": 5197,
      "iq": 5198,
      "metal": 5199,
      "57": 5200,
      "rl": 5201,
      "diam": 5202,
      "mayer": 5203,
      "torn": 5204,
      "burg": 5205,
      "kicking": 5206,
      "virus": 5207,
      "mexico": 5208,
      "41": 5209,
      "ml": 5210,
      "ability": 5211,
      "sadness": 5212,
      "harris": 5213,
      "discovered": 5214,
      "walmart": 5215,
      "phoenix": 5216,
      "shiny": 5217,
      "shaundiviney": 5218,
      "freedom": 5219,
      "accor": 5220,
      "shor": 5221,
      "uring": 5222,
      "desig": 5223,
      "singer": 5224,
      "wim": 5225,
      "mei": 5226,
      "owe": 5227,
      "roast": 5228,
      "vaness": 5229,
      "humid": 5230,
      "graduate": 5231,
      "mentioned": 5232,
      "challenge": 5233,
      "peanut": 5234,
      "530": 5235,
      "dl": 5236,
      "chy": 5237,
      "keith": 5238,
      "pride": 5239,
      "lightning": 5240,
      "601": 5241,
      "octo": 5242,
      "community": 5243,
      "bump": 5244,
      "noone": 5245,
      "ps3": 5246,
      "cara": 5247,
      "mariah": 5248,
      "journal": 5249,
      "pouring": 5250,
      "rox": 5251,
      "mister": 5252,
      "ako": 5253,
      "compli": 5254,
      "driver": 5255,
      "yikes": 5256,
      "popular": 5257,
      "sang": 5258,
      "itis": 5259,
      "weet": 5260,
      "aked": 5261,
      "drank": 5262,
      "parking": 5263,
      "hyper": 5264,
      "including": 5265,
      "babysitting": 5266,
      "suffering": 5267,
      "basketball": 5268,
      "db": 5269,
      "vest": 5270,
      "gos": 5271,
      "greek": 5272,
      "hungover": 5273,
      "nug": 5274,
      "arrive": 5275,
      "clearly": 5276,
      "47": 5277,
      "grant": 5278,
      "mines": 5279,
      "insomnia": 5280,
      "kal": 5281,
      "errand": 5282,
      "staff": 5283,
      "title": 5284,
      "ellen": 5285,
      "solo": 5286,
      "pops": 5287,
      "fries": 5288,
      "burgh": 5289,
      "central": 5290,
      "louis": 5291,
      "decision": 5292,
      "48": 5293,
      "pppp": 5294,
      "morgan": 5295,
      "lands": 5296,
      "dreading": 5297,
      "fon": 5298,
      "ident": 5299,
      "noise": 5300,
      "luke": 5301,
      "cares": 5302,
      "pleased": 5303,
      "cereal": 5304,
      "exercise": 5305,
      "icles": 5306,
      "msg": 5307,
      "spec": 5308,
      "2000": 5309,
      "johnson": 5310,
      "storms": 5311,
      "toms": 5312,
      "arian": 5313,
      "maid": 5314,
      "tsk": 5315,
      "legend": 5316,
      "faces": 5317,
      "easter": 5318,
      "plast": 5319,
      "acle": 5320,
      "sophie": 5321,
      "jst": 5322,
      "chlo": 5323,
      "fuse": 5324,
      "youngq": 5325,
      "jacob": 5326,
      "canceled": 5327,
      "itd": 5328,
      "rod": 5329,
      "anthony": 5330,
      "mountain": 5331,
      "brunch": 5332,
      "winner": 5333,
      "rolling": 5334,
      "ub": 5335,
      "chen": 5336,
      "dope": 5337,
      "mans": 5338,
      "consu": 5339,
      "prolly": 5340,
      "passion": 5341,
      "daisy": 5342,
      "lj": 5343,
      "tast": 5344,
      "lolz": 5345,
      "tyler": 5346,
      "parano": 5347,
      "farrah": 5348,
      "lewis": 5349,
      "aswell": 5350,
      "abby": 5351,
      "spen": 5352,
      "grind": 5353,
      "desktop": 5354,
      "62": 5355,
      "topics": 5356,
      "neys": 5357,
      "gud": 5358,
      "natalie": 5359,
      "spired": 5360,
      "cad": 5361,
      "rell": 5362,
      "stink": 5363,
      "motor": 5364,
      "jelly": 5365,
      "british": 5366,
      "students": 5367,
      "november": 5368,
      "cm": 5369,
      "dough": 5370,
      "yee": 5371,
      "asian": 5372,
      "hunt": 5373,
      "becky": 5374,
      "cart": 5375,
      "pine": 5376,
      "sox": 5377,
      "heels": 5378,
      "bothered": 5379,
      "bom": 5380,
      "nephew": 5381,
      "abs": 5382,
      "phill": 5383,
      "nicho": 5384,
      "spar": 5385,
      "jackie": 5386,
      "inthe": 5387,
      "holic": 5388,
      "kirstie": 5389,
      "amazon": 5390,
      "wana": 5391,
      "cum": 5392,
      "neighbour": 5393,
      "3gs": 5394,
      "gim": 5395,
      "wra": 5396,
      "dod": 5397,
      "feat": 5398,
      "lessons": 5399,
      "banks": 5400,
      "numbers": 5401,
      "engine": 5402,
      "ea": 5403,
      "equ": 5404,
      "grrrr": 5405,
      "sorted": 5406,
      "brandon": 5407,
      "ginger": 5408,
      "uhh": 5409,
      "bites": 5410,
      "duty": 5411,
      "condition": 5412,
      "02": 5413,
      "ppers": 5414,
      "jokes": 5415,
      "plays": 5416,
      "passing": 5417,
      "pillow": 5418,
      "rant": 5419,
      "tank": 5420,
      "thetic": 5421,
      "shat": 5422,
      "morn": 5423,
      "funeral": 5424,
      "charlot": 5425,
      "niece": 5426,
      "honor": 5427,
      "2moro": 5428,
      "tomorow": 5429,
      "quar": 5430,
      "manchester": 5431,
      "disappo": 5432,
      "acted": 5433,
      "ssssssss": 5434,
      "chapter": 5435,
      "ignore": 5436,
      "8am": 5437,
      "dw": 5438,
      "ques": 5439,
      "cait": 5440,
      "yyyyy": 5441,
      "cutting": 5442,
      "apprent": 5443,
      "christian": 5444,
      "ggling": 5445,
      "sittin": 5446,
      "usic": 5447,
      "craz": 5448,
      "reasons": 5449,
      "630": 5450,
      "gw": 5451,
      "jared": 5452,
      "beast": 5453,
      "urban": 5454,
      "meetings": 5455,
      "dreaming": 5456,
      "promot": 5457,
      "oooooooooooooooo": 5458,
      "yahoo": 5459,
      "society": 5460,
      "comfortable": 5461,
      "pam": 5462,
      "yas": 5463,
      "itted": 5464,
      "babes": 5465,
      "bills": 5466,
      "html": 5467,
      "leah": 5468,
      "hoor": 5469,
      "previous": 5470,
      "whore": 5471,
      "errands": 5472,
      "photograph": 5473,
      "veronica": 5474,
      "tj": 5475,
      "yess": 5476,
      "outs": 5477,
      "poison": 5478,
      "similar": 5479,
      "atlanta": 5480,
      "tc": 5481,
      "tempting": 5482,
      "230": 5483,
      "tink": 5484,
      "thus": 5485,
      "maine": 5486,
      "panic": 5487,
      "physics": 5488,
      "pocket": 5489,
      "united": 5490,
      "secur": 5491,
      "ura": 5492,
      "couldve": 5493,
      "opened": 5494,
      "confusing": 5495,
      "despite": 5496,
      "inform": 5497,
      "aby": 5498,
      "sue": 5499,
      "gloo": 5500,
      "hunting": 5501,
      "forgotten": 5502,
      "films": 5503,
      "ential": 5504,
      "gfal": 5505,
      "kc": 5506,
      "oil": 5507,
      "ule": 5508,
      "twits": 5509,
      "junk": 5510,
      "uploaded": 5511,
      "54": 5512,
      "63": 5513,
      "jad": 5514,
      "ooooooo": 5515,
      "yeahh": 5516,
      "steak": 5517,
      "clin": 5518,
      "zombie": 5519,
      "awkward": 5520,
      "cate": 5521,
      "lz": 5522,
      "inspired": 5523,
      "outfit": 5524,
      "fridge": 5525,
      "typing": 5526,
      "cutest": 5527,
      "cooked": 5528,
      "wilson": 5529,
      "glu": 5530,
      "nge": 5531,
      "shou": 5532,
      "regret": 5533,
      "icious": 5534,
      "preview": 5535,
      "anele": 5536,
      "events": 5537,
      "according": 5538,
      "rove": 5539,
      "someones": 5540,
      "felton": 5541,
      "wonders": 5542,
      "register": 5543,
      "ando": 5544,
      "neil": 5545,
      "begins": 5546,
      "gfalcone": 5547,
      "dell": 5548,
      "tool": 5549,
      "glorious": 5550,
      "nooooo": 5551,
      "mequot": 5552,
      "damnit": 5553,
      "technic": 5554,
      "lac": 5555,
      "thr": 5556,
      "anas": 5557,
      "annie": 5558,
      "amore": 5559,
      "herself": 5560,
      "berts": 5561,
      "travis": 5562,
      "feedback": 5563,
      "aboy": 5564,
      "placed": 5565,
      "gfalcone601": 5566,
      "wheel": 5567,
      "docu": 5568,
      "lux": 5569,
      "php": 5570,
      "contr": 5571,
      "limited": 5572,
      "tisdale": 5573,
      "survive": 5574,
      "desperate": 5575,
      "shannon": 5576,
      "fet": 5577,
      "whee": 5578,
      "accompl": 5579,
      "singapo": 5580,
      "easily": 5581,
      "competition": 5582,
      "rh": 5583,
      "anic": 5584,
      "smiles": 5585,
      "nature": 5586,
      "throwing": 5587,
      "mexican": 5588,
      "perezhilton": 5589,
      "6th": 5590,
      "bil": 5591,
      "surely": 5592,
      "nue": 5593,
      "universe": 5594,
      "knock": 5595,
      "fk": 5596,
      "ias": 5597,
      "tops": 5598,
      "upquot": 5599,
      "iranele": 5600,
      "peach": 5601,
      "moments": 5602,
      "disappointing": 5603,
      "ummm": 5604,
      "comfy": 5605,
      "poke": 5606,
      "ampt": 5607,
      "lucas": 5608,
      "booth": 5609,
      "itchy": 5610,
      "apprentice": 5611,
      "cee": 5612,
      "cture": 5613,
      "asing": 5614,
      "lips": 5615,
      "horror": 5616,
      "pasta": 5617,
      "mow": 5618,
      "xious": 5619,
      "thread": 5620,
      "army": 5621,
      "maria": 5622,
      "rockin": 5623,
      "kath": 5624,
      "httpplurkcomp12": 5625,
      "boun": 5626,
      "ema": 5627,
      "vation": 5628,
      "ext": 5629,
      "pattinson": 5630,
      "october": 5631,
      "mble": 5632,
      "munch": 5633,
      "agent": 5634,
      "playin": 5635,
      "ortun": 5636,
      "stephanie": 5637,
      "talented": 5638,
      "gloomy": 5639,
      "h1": 5640,
      "tme": 5641,
      "boi": 5642,
      "presen": 5643,
      "skills": 5644,
      "wendy": 5645,
      "jin": 5646,
      "nig": 5647,
      "ffim": 5648,
      "careful": 5649,
      "hmmmm": 5650,
      "alter": 5651,
      "porn": 5652,
      "effect": 5653,
      "abu": 5654,
      "gad": 5655,
      "zes": 5656,
      "oned": 5657,
      "chie": 5658,
      "wentz": 5659,
      "flood": 5660,
      "borrow": 5661,
      "paranoid": 5662,
      "49": 5663,
      "bou": 5664,
      "arly": 5665,
      "bein": 5666,
      "httpffim": 5667,
      "bai": 5668,
      "tommy": 5669,
      "zabeth": 5670,
      "mixed": 5671,
      "coughing": 5672,
      "allergic": 5673,
      "normally": 5674,
      "socks": 5675,
      "tasty": 5676,
      "curry": 5677,
      "tunes": 5678,
      "crowd": 5679,
      "nighty": 5680,
      "groo": 5681,
      "scotland": 5682,
      "2am": 5683,
      "dread": 5684,
      "rc": 5685,
      "rec": 5686,
      "edge": 5687,
      "lizz": 5688,
      "sunburnt": 5689,
      "singapore": 5690,
      "laid": 5691,
      "bride": 5692,
      "shops": 5693,
      "jud": 5694,
      "melissa": 5695,
      "announce": 5696,
      "pg": 5697,
      "twitt": 5698,
      "plat": 5699,
      "grate": 5700,
      "iranelection": 5701,
      "fare": 5702,
      "flies": 5703,
      "vu": 5704,
      "edit": 5705,
      "caffe": 5706,
      "cutie": 5707,
      "bleh": 5708,
      "sayin": 5709,
      "bliss": 5710,
      "animals": 5711,
      "screaming": 5712,
      "jennifer": 5713,
      "8th": 5714,
      "stro": 5715,
      "chant": 5716,
      "gem": 5717,
      "procra": 5718,
      "softball": 5719,
      "security": 5720,
      "wrist": 5721,
      "myster": 5722,
      "trade": 5723,
      "degree": 5724,
      "bg": 5725,
      "nash": 5726,
      "quoto": 5727,
      "appeared": 5728,
      "patch": 5729,
      "melt": 5730,
      "brun": 5731,
      "ninja": 5732,
      "expecting": 5733,
      "popcorn": 5734,
      "opportun": 5735,
      "ahah": 5736,
      "vp": 5737,
      "youth": 5738,
      "highly": 5739,
      "subscri": 5740,
      "brittany": 5741,
      "cmon": 5742,
      "baking": 5743,
      "jacket": 5744,
      "bitches": 5745,
      "teaching": 5746,
      "oon": 5747,
      "itter": 5748,
      "aging": 5749,
      "brend": 5750,
      "mighty": 5751,
      "dishes": 5752,
      "curl": 5753,
      "sry": 5754,
      "seemed": 5755,
      "minus": 5756,
      "anky": 5757,
      "diego": 5758,
      "pointed": 5759,
      "dvds": 5760,
      "devil": 5761,
      "champion": 5762,
      "56": 5763,
      "lest": 5764,
      "adams": 5765,
      "pressure": 5766,
      "theatre": 5767,
      "mack": 5768,
      "bedroom": 5769,
      "particul": 5770,
      "contacts": 5771,
      "tanning": 5772,
      "above": 5773,
      "730": 5774,
      "ui": 5775,
      "blin": 5776,
      "geez": 5777,
      "jl": 5778,
      "oni": 5779,
      "satis": 5780,
      "windy": 5781,
      "commercial": 5782,
      "ently": 5783,
      "80s": 5784,
      "dit": 5785,
      "fig": 5786,
      "maker": 5787,
      "glam": 5788,
      "lvatt": 5789,
      "430": 5790,
      "dim": 5791,
      "hits": 5792,
      "kah": 5793,
      "plain": 5794,
      "rings": 5795,
      "rend": 5796,
      "ata": 5797,
      "llie": 5798,
      "hopp": 5799,
      "joh": 5800,
      "kobe": 5801,
      "failing": 5802,
      "transl": 5803,
      "theory": 5804,
      "forced": 5805,
      "dece": 5806,
      "sian": 5807,
      "sooner": 5808,
      "replying": 5809,
      "dollars": 5810,
      "cancel": 5811,
      "g1": 5812,
      "rang": 5813,
      "lio": 5814,
      "scen": 5815,
      "calm": 5816,
      "effe": 5817,
      "iee": 5818,
      "kend": 5819,
      "chelle": 5820,
      "trash": 5821,
      "rocked": 5822,
      "aaaay": 5823,
      "sow": 5824,
      "tac": 5825,
      "tgif": 5826,
      "pregn": 5827,
      "grac": 5828,
      "stores": 5829,
      "bitter": 5830,
      "craw": 5831,
      "tomfelton": 5832,
      "police": 5833,
      "frustrating": 5834,
      "paw": 5835,
      "wiz": 5836,
      "tiger": 5837,
      "plug": 5838,
      "sia": 5839,
      "saturdays": 5840,
      "connected": 5841,
      "spoil": 5842,
      "virtual": 5843,
      "4ever": 5844,
      "mega": 5845,
      "imate": 5846,
      "lion": 5847,
      "stolen": 5848,
      "landed": 5849,
      "subway": 5850,
      "celebrity": 5851,
      "successful": 5852,
      "technology": 5853,
      "cp": 5854,
      "ibly": 5855,
      "nate": 5856,
      "lift": 5857,
      "useful": 5858,
      "ashes": 5859,
      "roller": 5860,
      "laws": 5861,
      "butterfly": 5862,
      "pixie": 5863,
      "tastes": 5864,
      "clip": 5865,
      "reat": 5866,
      "halo": 5867,
      "chor": 5868,
      "mies": 5869,
      "tongue": 5870,
      "tweetup": 5871,
      "trent": 5872,
      "jordin": 5873,
      "woods": 5874,
      "rrrrrrrr": 5875,
      "httpmypic": 5876,
      "motivation": 5877,
      "jak": 5878,
      "mater": 5879,
      "tidy": 5880,
      "envy": 5881,
      "ria": 5882,
      "shane": 5883,
      "saus": 5884,
      "craft": 5885,
      "disgust": 5886,
      "failure": 5887,
      "rass": 5888,
      "urance": 5889,
      "demand": 5890,
      "manager": 5891,
      "conrad": 5892,
      "angie": 5893,
      "tonights": 5894,
      "java": 5895,
      "francis": 5896,
      "microsoft": 5897,
      "hooray": 5898,
      "samp": 5899,
      "mint": 5900,
      "intern": 5901,
      "bsb": 5902,
      "royal": 5903,
      "heroes": 5904,
      "lovee": 5905,
      "noodles": 5906,
      "httpmypictme": 5907,
      "pitch": 5908,
      "wud": 5909,
      "otic": 5910,
      "une": 5911,
      "seth": 5912,
      "rio": 5913,
      "shr": 5914,
      "mos": 5915,
      "igan": 5916,
      "chem": 5917,
      "waitin": 5918,
      "path": 5919,
      "blogging": 5920,
      "photoshop": 5921,
      "httptinyurlcomd": 5922,
      "designs": 5923,
      "terribly": 5924,
      "biscu": 5925,
      "oul": 5926,
      "offline": 5927,
      "tells": 5928,
      "pieces": 5929,
      "hawk": 5930,
      "lore": 5931,
      "actor": 5932,
      "sets": 5933,
      "frozen": 5934,
      "smoking": 5935,
      "depends": 5936,
      "rehearsal": 5937,
      "images": 5938,
      "unfair": 5939,
      "moder": 5940,
      "spill": 5941,
      "rug": 5942,
      "tad": 5943,
      "every1": 5944,
      "parad": 5945,
      "swag": 5946,
      "casey": 5947,
      "lace": 5948,
      "regard": 5949,
      "bett": 5950,
      "spare": 5951,
      "twitterverse": 5952,
      "blogger": 5953,
      "cooper": 5954,
      "customer": 5955,
      "4life": 5956,
      "faw": 5957,
      "n1": 5958,
      "rev": 5959,
      "theater": 5960,
      "ids": 5961,
      "cel": 5962,
      "quotyou": 5963,
      "shay": 5964,
      "eventually": 5965,
      "neighbors": 5966,
      "hammer": 5967,
      "molly": 5968,
      "accounts": 5969,
      "louise": 5970,
      "jerry": 5971,
      "poop": 5972,
      "accidentally": 5973,
      "vodka": 5974,
      "nm": 5975,
      "pb": 5976,
      "rez": 5977,
      "0000": 5978,
      "zzzzzzzz": 5979,
      "divor": 5980,
      "itude": 5981,
      "rae": 5982,
      "convo": 5983,
      "christmas": 5984,
      "pushing": 5985,
      "opinion": 5986,
      "jt": 5987,
      "naw": 5988,
      "unfollow": 5989,
      "guard": 5990,
      "gona": 5991,
      "ilet": 5992,
      "carto": 5993,
      "partner": 5994,
      "wrk": 5995,
      "swing": 5996,
      "carey": 5997,
      "password": 5998,
      "wireless": 5999,
      "oliver": 6000,
      "tol": 6001,
      "ltlt": 6002,
      "hire": 6003,
      "partying": 6004,
      "poorly": 6005,
      "pets": 6006,
      "112": 6007,
      "21st": 6008,
      "39": 6009,
      "yank": 6010,
      "shire": 6011,
      "demons": 6012,
      "somethin": 6013,
      "nigh": 6014,
      "laughed": 6015,
      "domin": 6016,
      "diss": 6017,
      "etsy": 6018,
      "seme": 6019,
      "dem": 6020,
      "plate": 6021,
      "female": 6022,
      "duh": 6023,
      "warning": 6024,
      "fallen": 6025,
      "package": 6026,
      "cups": 6027,
      "delivery": 6028,
      "2k": 6029,
      "eww": 6030,
      "ota": 6031,
      "poster": 6032,
      "luckily": 6033,
      "wallet": 6034,
      "frankie": 6035,
      "210": 6036,
      "bryan": 6037,
      "kardashian": 6038,
      "nay": 6039,
      "couk": 6040,
      "misss": 6041,
      "crashing": 6042,
      "biology": 6043,
      "involved": 6044,
      "hoppus": 6045,
      "kam": 6046,
      "ened": 6047,
      "blur": 6048,
      "americ": 6049,
      "130": 6050,
      "nine": 6051,
      "sno": 6052,
      "hae": 6053,
      "perform": 6054,
      "stein": 6055,
      "trees": 6056,
      "lounge": 6057,
      "aper": 6058,
      "kia": 6059,
      "atampt": 6060,
      "youuu": 6061,
      "ences": 6062,
      "lope": 6063,
      "guide": 6064,
      "tub": 6065,
      "ngth": 6066,
      "httptinyurlcomq": 6067,
      "charlotte": 6068,
      "semi": 6069,
      "thatll": 6070,
      "quire": 6071,
      "writ": 6072,
      "eeeeeee": 6073,
      "sett": 6074,
      "disneyland": 6075,
      "skinny": 6076,
      "paige": 6077,
      "nba": 6078,
      "vine": 6079,
      "guessing": 6080,
      "fyi": 6081,
      "havnt": 6082,
      "lane": 6083,
      "sq": 6084,
      "resist": 6085,
      "leo": 6086,
      "studi": 6087,
      "emine": 6088,
      "rooms": 6089,
      "drivers": 6090,
      "mpy": 6091,
      "computers": 6092,
      "fixing": 6093,
      "fishing": 6094,
      "glasgow": 6095,
      "dess": 6096,
      "lens": 6097,
      "logo": 6098,
      "naught": 6099,
      "marc": 6100,
      "tryna": 6101,
      "incredibly": 6102,
      "develop": 6103,
      "800": 6104,
      "830": 6105,
      "bd": 6106,
      "hers": 6107,
      "np": 6108,
      "wth": 6109,
      "forgive": 6110,
      "scru": 6111,
      "warped": 6112,
      "robot": 6113,
      "grill": 6114,
      "nurse": 6115,
      "110": 6116,
      "fel": 6117,
      "shape": 6118,
      "muscle": 6119,
      "clem": 6120,
      "sats": 6121,
      "hangin": 6122,
      "ila": 6123,
      "o2": 6124,
      "repair": 6125,
      "acom": 6126,
      "cop": 6127,
      "proof": 6128,
      "bathing": 6129,
      "skip": 6130,
      "turkey": 6131,
      "collection": 6132,
      "officialtila": 6133,
      "captain": 6134,
      "retro": 6135,
      "assho": 6136,
      "necess": 6137,
      "thai": 6138,
      "courtney": 6139,
      "reunion": 6140,
      "edin": 6141,
      "bums": 6142,
      "comfort": 6143,
      "pudd": 6144,
      "pathetic": 6145,
      "2008": 6146,
      "hooked": 6147,
      "59": 6148,
      "lower": 6149,
      "mck": 6150,
      "mainten": 6151,
      "headphones": 6152,
      "dull": 6153,
      "walker": 6154,
      "boxes": 6155,
      "vices": 6156,
      "procrastin": 6157,
      "wack": 6158,
      "ender": 6159,
      "takin": 6160,
      "spoke": 6161,
      "psycho": 6162,
      "4u": 6163,
      "aries": 6164,
      "edi": 6165,
      "tiring": 6166,
      "thingy": 6167,
      "waves": 6168,
      "dizzy": 6169,
      "factory": 6170,
      "installing": 6171,
      "emotional": 6172,
      "sg": 6173,
      "hash": 6174,
      "tastic": 6175,
      "yayy": 6176,
      "coursework": 6177,
      "princes": 6178,
      "tbh": 6179,
      "asks": 6180,
      "typical": 6181,
      "sounded": 6182,
      "judge": 6183,
      "apy": 6184,
      "university": 6185,
      "washed": 6186,
      "assignments": 6187,
      "entertaining": 6188,
      "victoria": 6189,
      "52": 6190,
      "gus": 6191,
      "argent": 6192,
      "ady": 6193,
      "uper": 6194,
      "yesss": 6195,
      "papa": 6196,
      "vint": 6197,
      "gel": 6198,
      "berlin": 6199,
      "wink": 6200,
      "ency": 6201,
      "ffs": 6202,
      "mario": 6203,
      "mp3": 6204,
      "brush": 6205,
      "summers": 6206,
      "upgrad": 6207,
      "assy": 6208,
      "audi": 6209,
      "dropping": 6210,
      "britains": 6211,
      "shadow": 6212,
      "recovering": 6213,
      "kirstiealley": 6214,
      "users": 6215,
      "hahahahaha": 6216,
      "ified": 6217,
      "useless": 6218,
      "hihi": 6219,
      "realise": 6220,
      "denver": 6221,
      "layout": 6222,
      "deserved": 6223,
      "hiding": 6224,
      "hk": 6225,
      "mers": 6226,
      "rach": 6227,
      "waited": 6228,
      "clay": 6229,
      "3333": 6230,
      "clients": 6231,
      "3r": 6232,
      "bash": 6233,
      "jaw": 6234,
      "og": 6235,
      "attr": 6236,
      "lebron": 6237,
      "asia": 6238,
      "aware": 6239,
      "pover": 6240,
      "dane": 6241,
      "effing": 6242,
      "dk": 6243,
      "belong": 6244,
      "abc": 6245,
      "bos": 6246,
      "concent": 6247,
      "playlist": 6248,
      "thankful": 6249,
      "wossy": 6250,
      "paramore": 6251,
      "gooood": 6252,
      "dissa": 6253,
      "pim": 6254,
      "zack": 6255,
      "inner": 6256,
      "arse": 6257,
      "bust": 6258,
      "ohhhh": 6259,
      "nya": 6260,
      "jerk": 6261,
      "location": 6262,
      "adore": 6263,
      "prepare": 6264,
      "introdu": 6265,
      "cen": 6266,
      "ante": 6267,
      "cope": 6268,
      "debbie": 6269,
      "ohio": 6270,
      "girly": 6271,
      "sweetheart": 6272,
      "stuffed": 6273,
      "graduating": 6274,
      "retard": 6275,
      "gnite": 6276,
      "remix": 6277,
      "lef": 6278,
      "missy": 6279,
      "prepared": 6280,
      "medicine": 6281,
      "spencer": 6282,
      "fck": 6283,
      "thous": 6284,
      "erer": 6285,
      "shif": 6286,
      "xxxxx": 6287,
      "ggs": 6288,
      "ctic": 6289,
      "musicmonday": 6290,
      "linux": 6291,
      "twisted": 6292,
      "squir": 6293,
      "jury": 6294,
      "tet": 6295,
      "escape": 6296,
      "aming": 6297,
      "aland": 6298,
      "role": 6299,
      "canad": 6300,
      "pher": 6301,
      "sunglasses": 6302,
      "donuts": 6303,
      "mph": 6304,
      "zee": 6305,
      "stun": 6306,
      "solution": 6307,
      "reminded": 6308,
      "application": 6309,
      "httptwurl": 6310,
      "fas": 6311,
      "jm": 6312,
      "shave": 6313,
      "wp": 6314,
      "thn": 6315,
      "holla": 6316,
      "nette": 6317,
      "sonic": 6318,
      "uuuuuuuu": 6319,
      "aqu": 6320,
      "dork": 6321,
      "gill": 6322,
      "yawn": 6323,
      "members": 6324,
      "lene": 6325,
      "mod": 6326,
      "tracks": 6327,
      "position": 6328,
      "stephenfry": 6329,
      "document": 6330,
      "amen": 6331,
      "nb": 6332,
      "wif": 6333,
      "dian": 6334,
      "license": 6335,
      "plastic": 6336,
      "maintenance": 6337,
      "kha": 6338,
      "liqu": 6339,
      "bunt": 6340,
      "upon": 6341,
      "uss": 6342,
      "homemade": 6343,
      "patter": 6344,
      "obama": 6345,
      "legal": 6346,
      "addiction": 6347,
      "soulj": 6348,
      "clemmen": 6349,
      "drow": 6350,
      "pak": 6351,
      "rly": 6352,
      "ghh": 6353,
      "busted": 6354,
      "plurk": 6355,
      "marry": 6356,
      "nicely": 6357,
      "hhhhh": 6358,
      "recipe": 6359,
      "product": 6360,
      "surprising": 6361,
      "ades": 6362,
      "author": 6363,
      "insurance": 6364,
      "junior": 6365,
      "budget": 6366,
      "relationship": 6367,
      "information": 6368,
      "cds": 6369,
      "witch": 6370,
      "helen": 6371,
      "greys": 6372,
      "izon": 6373,
      "kenny": 6374,
      "cowor": 6375,
      "clemmensen": 6376,
      "oi": 6377,
      "yt": 6378,
      "stinks": 6379,
      "amar": 6380,
      "ruth": 6381,
      "precious": 6382,
      "appt": 6383,
      "goddess": 6384,
      "semester": 6385,
      "dow": 6386,
      "dye": 6387,
      "qt": 6388,
      "sticks": 6389,
      "lls": 6390,
      "amin": 6391,
      "willing": 6392,
      "prim": 6393,
      "marley": 6394,
      "serve": 6395,
      "1030": 6396,
      "traveling": 6397,
      "naughty": 6398,
      "cb": 6399,
      "frick": 6400,
      "tai": 6401,
      "tap": 6402,
      "twittercom": 6403,
      "ooooh": 6404,
      "aaaaaa": 6405,
      "kkk": 6406,
      "nico": 6407,
      "18th": 6408,
      "ledge": 6409,
      "prayer": 6410,
      "aay": 6411,
      "gare": 6412,
      "niley": 6413,
      "spray": 6414,
      "funni": 6415,
      "scrip": 6416,
      "annah": 6417,
      "created": 6418,
      "volun": 6419,
      "inno": 6420,
      "towards": 6421,
      "awson": 6422,
      "headaches": 6423,
      "drun": 6424,
      "httptinyurlcoml": 6425,
      "kitt": 6426,
      "kicks": 6427,
      "vicky": 6428,
      "infor": 6429,
      "una": 6430,
      "twins": 6431,
      "slack": 6432,
      "babygirl": 6433,
      "survi": 6434,
      "concerts": 6435,
      "definately": 6436,
      "source": 6437,
      "0r": 6438,
      "scan": 6439,
      "valley": 6440,
      "arth": 6441,
      "doh": 6442,
      "kills": 6443,
      "sammy": 6444,
      "ccas": 6445,
      "instru": 6446,
      "pleasant": 6447,
      "murder": 6448,
      "opera": 6449,
      "negative": 6450,
      "stacey": 6451,
      "meliss": 6452,
      "grandpa": 6453,
      "addict": 6454,
      "improve": 6455,
      "420": 6456,
      "mx": 6457,
      "pj": 6458,
      "itas": 6459,
      "vegan": 6460,
      "fari": 6461,
      "subject": 6462,
      "nadal": 6463,
      "46": 6464,
      "df": 6465,
      "inju": 6466,
      "thou": 6467,
      "beard": 6468,
      "alpha": 6469,
      "mosqu": 6470,
      "afterwards": 6471,
      "cooler": 6472,
      "sweets": 6473,
      "graduated": 6474,
      "climb": 6475,
      "removed": 6476,
      "hamp": 6477,
      "ghet": 6478,
      "folk": 6479,
      "rocking": 6480,
      "lindsay": 6481,
      "intense": 6482,
      "pearl": 6483,
      "spymaster": 6484,
      "nr": 6485,
      "sb": 6486,
      "tomy": 6487,
      "stere": 6488,
      "sec": 6489,
      "irrit": 6490,
      "bodys": 6491,
      "carr": 6492,
      "bbing": 6493,
      "promised": 6494,
      "yumm": 6495,
      "lemme": 6496,
      "pounds": 6497,
      "9am": 6498,
      "930": 6499,
      "ym": 6500,
      "amil": 6501,
      "heath": 6502,
      "zzi": 6503,
      "renee": 6504,
      "wknd": 6505,
      "embarrass": 6506,
      "rhy": 6507,
      "suz": 6508,
      "hiya": 6509,
      "ggies": 6510,
      "browser": 6511,
      "youtubecom": 6512,
      "experien": 6513,
      "compliment": 6514,
      "aff": 6515,
      "aire": 6516,
      "vt": 6517,
      "wives": 6518,
      "nicks": 6519,
      "reviews": 6520,
      "username": 6521,
      "thumb": 6522,
      "contract": 6523,
      "thousand": 6524,
      "souljaboy": 6525,
      "dic": 6526,
      "vil": 6527,
      "recit": 6528,
      "owl": 6529,
      "leys": 6530,
      "tied": 6531,
      "oodle": 6532,
      "plants": 6533,
      "carpet": 6534,
      "150": 6535,
      "origin": 6536,
      "weakness": 6537,
      "encou": 6538,
      "ido": 6539,
      "expl": 6540,
      "sync": 6541,
      "yogur": 6542,
      "rence": 6543,
      "completed": 6544,
      "alexalltimelow": 6545,
      "blows": 6546,
      "hated": 6547,
      "swa": 6548,
      "tore": 6549,
      "ghhh": 6550,
      "dip": 6551,
      "juicy": 6552,
      "httptwitpiccom68": 6553,
      "surf": 6554,
      "andyclemmensen": 6555,
      "dollar": 6556,
      "receive": 6557,
      "caffeine": 6558,
      "elli": 6559,
      "fx": 6560,
      "fif": 6561,
      "rb": 6562,
      "incre": 6563,
      "andro": 6564,
      "edition": 6565,
      "sob": 6566,
      "dez": 6567,
      "johnc": 6568,
      "effort": 6569,
      "itions": 6570,
      "andra": 6571,
      "quake": 6572,
      "httpplurkcompz": 6573,
      "transfer": 6574,
      "tracecyrus": 6575,
      "bradiewebb": 6576,
      "stee": 6577,
      "weir": 6578,
      "moni": 6579,
      "crit": 6580,
      "uuup": 6581,
      "settle": 6582,
      "bars": 6583,
      "resting": 6584,
      "volution": 6585,
      "ais": 6586,
      "cn": 6587,
      "dere": 6588,
      "rer": 6589,
      "zach": 6590,
      "asot": 6591,
      "lolol": 6592,
      "ohmy": 6593,
      "vista": 6594,
      "bailey": 6595,
      "tellem": 6596,
      "barry": 6597,
      "iamdiddy": 6598,
      "split": 6599,
      "younger": 6600,
      "tomato": 6601,
      "excite": 6602,
      "7th": 6603,
      "omy": 6604,
      "noes": 6605,
      "dutch": 6606,
      "worlds": 6607,
      "foods": 6608,
      "prime": 6609,
      "loooo": 6610,
      "sms": 6611,
      "ati": 6612,
      "ication": 6613,
      "bugger": 6614,
      "wayne": 6615,
      "cling": 6616,
      "counter": 6617,
      "grandparents": 6618,
      "perfectly": 6619,
      "knocked": 6620,
      "bz": 6621,
      "cnn": 6622,
      "das": 6623,
      "myname": 6624,
      "laker": 6625,
      "gots": 6626,
      "entry": 6627,
      "psi": 6628,
      "shawn": 6629,
      "skate": 6630,
      "smack": 6631,
      "joining": 6632,
      "sssss": 6633,
      "unique": 6634,
      "shud": 6635,
      "joseph": 6636,
      "330": 6637,
      "bush": 6638,
      "justine": 6639,
      "stest": 6640,
      "talks": 6641,
      "buddies": 6642,
      "api": 6643,
      "dah": 6644,
      "lg": 6645,
      "comm": 6646,
      "agan": 6647,
      "saf": 6648,
      "mony": 6649,
      "disappeared": 6650,
      "httptinyurlcomn": 6651,
      "native": 6652,
      "colors": 6653,
      "strawberries": 6654,
      "volunte": 6655,
      "icia": 6656,
      "lob": 6657,
      "graphic": 6658,
      "audition": 6659,
      "lilyrose": 6660,
      "pirate": 6661,
      "shoutout": 6662,
      "dred": 6663,
      "kur": 6664,
      "allison": 6665,
      "combin": 6666,
      "twitterland": 6667,
      "kathy": 6668,
      "bees": 6669,
      "miller": 6670,
      "ashleytisdale": 6671,
      "baked": 6672,
      "reached": 6673,
      "grumpy": 6674,
      "zar": 6675,
      "rebe": 6676,
      "indi": 6677,
      "assist": 6678,
      "autom": 6679,
      "marri": 6680,
      "angela": 6681,
      "famili": 6682,
      "chain": 6683,
      "httptinyurlcomm": 6684,
      "srs": 6685,
      "erie": 6686,
      "acc": 6687,
      "scoo": 6688,
      "fami": 6689,
      "career": 6690,
      "istic": 6691,
      "shortly": 6692,
      "l8": 6693,
      "uc": 6694,
      "yle": 6695,
      "toilet": 6696,
      "eter": 6697,
      "puts": 6698,
      "sony": 6699,
      "supernatural": 6700,
      "sooooooo": 6701,
      "stretch": 6702,
      "dannygokey": 6703,
      "appears": 6704,
      "vintage": 6705,
      "reaction": 6706,
      "dol": 6707,
      "expo": 6708,
      "eeds": 6709,
      "grew": 6710,
      "essions": 6711,
      "bran": 6712,
      "aki": 6713,
      "glow": 6714,
      "lambert": 6715,
      "fawc": 6716,
      "fty": 6717,
      "ih": 6718,
      "joes": 6719,
      "happier": 6720,
      "provid": 6721,
      "answers": 6722,
      "forecast": 6723,
      "charm": 6724,
      "filming": 6725,
      "kimber": 6726,
      "claim": 6727,
      "relieve": 6728,
      "confirm": 6729,
      "opportunity": 6730,
      "ease": 6731,
      "xs": 6732,
      "toooo": 6733,
      "rees": 6734,
      "mae": 6735,
      "wished": 6736,
      "dublin": 6737,
      "minor": 6738,
      "cials": 6739,
      "yayyy": 6740,
      "penny": 6741,
      "karma": 6742,
      "53": 6743,
      "amed": 6744,
      "oven": 6745,
      "tp": 6746,
      "argu": 6747,
      "betty": 6748,
      "ading": 6749,
      "no1": 6750,
      "safari": 6751,
      "mango": 6752,
      "bake": 6753,
      "spelling": 6754,
      "daughters": 6755,
      "cotton": 6756,
      "nuggets": 6757,
      "grateful": 6758,
      "buntu": 6759,
      "souljaboytellem": 6760,
      "fits": 6761,
      "sas": 6762,
      "vom": 6763,
      "ppp": 6764,
      "girlie": 6765,
      "timing": 6766,
      "filling": 6767,
      "pumped": 6768,
      "eminem": 6769,
      "lilyroseallen": 6770,
      "font": 6771,
      "jah": 6772,
      "kd": 6773,
      "pis": 6774,
      "sally": 6775,
      "xen": 6776,
      "toys": 6777,
      "pple": 6778,
      "theyd": 6779,
      "whoever": 6780,
      "vines": 6781,
      "vention": 6782,
      "flights": 6783,
      "fantasy": 6784,
      "brooklyn": 6785,
      "ams": 6786,
      "helpful": 6787,
      "coldplay": 6788,
      "minds": 6789,
      "personally": 6790,
      "ships": 6791,
      "chelse": 6792,
      "lamb": 6793,
      "tah": 6794,
      "whew": 6795,
      "stops": 6796,
      "httpbitly1": 6797,
      "loading": 6798,
      "chores": 6799,
      "smash": 6800,
      "zoe": 6801,
      "johncmayer": 6802,
      "gaw": 6803,
      "kon": 6804,
      "iser": 6805,
      "map": 6806,
      "mono": 6807,
      "downstairs": 6808,
      "dudes": 6809,
      "cramps": 6810,
      "root": 6811,
      "sucky": 6812,
      "danielle": 6813,
      "thumbs": 6814,
      "yogurt": 6815,
      "gni": 6816,
      "horri": 6817,
      "httpisg": 6818,
      "dating": 6819,
      "iny": 6820,
      "backup": 6821,
      "themselves": 6822,
      "dani": 6823,
      "clever": 6824,
      "squee": 6825,
      "stalker": 6826,
      "kristin": 6827,
      "confirmed": 6828,
      "dwi": 6829,
      "goooo": 6830,
      "kent": 6831,
      "nag": 6832,
      "rm": 6833,
      "hardcore": 6834,
      "ular": 6835,
      "georgia": 6836,
      "depend": 6837,
      "elizabeth": 6838,
      "complicated": 6839,
      "wc": 6840,
      "loll": 6841,
      "mug": 6842,
      "steps": 6843,
      "brownies": 6844,
      "included": 6845,
      "homie": 6846,
      "diamond": 6847,
      "cindy": 6848,
      "ditch": 6849,
      "hint": 6850,
      "nxt": 6851,
      "ov": 6852,
      "qq": 6853,
      "tter": 6854,
      "nevermind": 6855,
      "wore": 6856,
      "burns": 6857,
      "dannywood": 6858,
      "sharon": 6859,
      "thunderstorm": 6860,
      "gag": 6861,
      "jh": 6862,
      "lbs": 6863,
      "veget": 6864,
      "held": 6865,
      "heidi": 6866,
      "rafa": 6867,
      "funky": 6868,
      "presid": 6869,
      "pire": 6870,
      "southern": 6871,
      "rescue": 6872,
      "profession": 6873,
      "julia": 6874,
      "henry": 6875,
      "responsi": 6876,
      "premiere": 6877,
      "cries": 6878,
      "dak": 6879,
      "fone": 6880,
      "gooooo": 6881,
      "smiley": 6882,
      "santa": 6883,
      "aya": 6884,
      "quel": 6885,
      "celt": 6886,
      "onge": 6887,
      "pulling": 6888,
      "apply": 6889,
      "puppies": 6890,
      "potato": 6891,
      "remote": 6892,
      "kg": 6893,
      "zs": 6894,
      "hosting": 6895,
      "condo": 6896,
      "gency": 6897,
      "salt": 6898,
      "statement": 6899,
      "liverpool": 6900,
      "houses": 6901,
      "nightmares": 6902,
      "chloe": 6903,
      "disgusting": 6904,
      "58": 6905,
      "izz": 6906,
      "asure": 6907,
      "mai": 6908,
      "joys": 6909,
      "ffles": 6910,
      "eatin": 6911,
      "roomm": 6912,
      "ignoring": 6913,
      "nicky": 6914,
      "coolest": 6915,
      "votes": 6916,
      "cers": 6917,
      "osa": 6918,
      "league": 6919,
      "negle": 6920,
      "closet": 6921,
      "nett": 6922,
      "archule": 6923,
      "touched": 6924,
      "cracked": 6925,
      "clau": 6926,
      "further": 6927,
      "oppos": 6928,
      "silent": 6929,
      "tweeple": 6930,
      "csi": 6931,
      "lick": 6932,
      "returned": 6933,
      "clare": 6934,
      "loop": 6935,
      "sleepover": 6936,
      "rabbit": 6937,
      "global": 6938,
      "studios": 6939,
      "archuleta": 6940,
      "meow": 6941,
      "meeee": 6942,
      "budd": 6943,
      "worn": 6944,
      "thering": 6945,
      "umbre": 6946,
      "cassie": 6947,
      "dash": 6948,
      "ela": 6949,
      "tess": 6950,
      "bears": 6951,
      "former": 6952,
      "tier": 6953,
      "rache": 6954,
      "therapy": 6955,
      "prices": 6956,
      "syn": 6957,
      "dealing": 6958,
      "complaining": 6959,
      "calend": 6960,
      "rusty": 6961,
      "ghan": 6962,
      "etime": 6963,
      "quotes": 6964,
      "friggin": 6965,
      "beef": 6966,
      "whoop": 6967,
      "cott": 6968,
      "dal": 6969,
      "ely": 6970,
      "hic": 6971,
      "kb": 6972,
      "pills": 6973,
      "sink": 6974,
      "sway": 6975,
      "tl": 6976,
      "ubuntu": 6977,
      "anxious": 6978,
      "esy": 6979,
      "unable": 6980,
      "nest": 6981,
      "lush": 6982,
      "owner": 6983,
      "sket": 6984,
      "surfing": 6985,
      "oprah": 6986,
      "bleeding": 6987,
      "pregnant": 6988,
      "vn": 6989,
      "quotim": 6990,
      "para": 6991,
      "cleve": 6992,
      "eight": 6993,
      "recommendation": 6994,
      "struggling": 6995,
      "flew": 6996,
      "distur": 6997,
      "predic": 6998,
      "argentina": 6999,
      "families": 7000,
      "wrap": 7001,
      "atta": 7002,
      "bever": 7003,
      "delight": 7004,
      "hahaa": 7005,
      "marsh": 7006,
      "vina": 7007,
      "norway": 7008,
      "grandmas": 7009,
      "rolls": 7010,
      "moore": 7011,
      "leader": 7012,
      "sheets": 7013,
      "geography": 7014,
      "t3": 7015,
      "wats": 7016,
      "dancer": 7017,
      "international": 7018,
      "excitement": 7019,
      "51": 7020,
      "wreck": 7021,
      "sober": 7022,
      "monica": 7023,
      "achie": 7024,
      "10am": 7025,
      "multiple": 7026,
      "december": 7027,
      "fawcett": 7028,
      "wot": 7029,
      "ampa": 7030,
      "exchange": 7031,
      "hards": 7032,
      "staring": 7033,
      "ricky": 7034,
      "reception": 7035,
      "petewentz": 7036,
      "iy": 7037,
      "mf": 7038,
      "require": 7039,
      "chrome": 7040,
      "couver": 7041,
      "ttyl": 7042,
      "httptinyurlcomp": 7043,
      "promo": 7044,
      "cruel": 7045,
      "detro": 7046,
      "asot400": 7047,
      "wom": 7048,
      "withdra": 7049,
      "larry": 7050,
      "mirror": 7051,
      "designer": 7052,
      "dt": 7053,
      "tomor": 7054,
      "hacked": 7055,
      "mud": 7056,
      "spicy": 7057,
      "messing": 7058,
      "247": 7059,
      "cameron": 7060,
      "eb": 7061,
      "forgetting": 7062,
      "quin": 7063,
      "madison": 7064,
      "dram": 7065,
      "skir": 7066,
      "doug": 7067,
      "answered": 7068,
      "laurenconrad": 7069,
      "scheduled": 7070,
      "bamboo": 7071,
      "avi": 7072,
      "items": 7073,
      "shoulda": 7074,
      "chaos": 7075,
      "httpplurkcompu": 7076,
      "ivy": 7077,
      "digg": 7078,
      "susp": 7079,
      "httpustream2": 7080,
      "jg": 7081,
      "oclock": 7082,
      "squot": 7083,
      "yung": 7084,
      "ories": 7085,
      "leve": 7086,
      "solid": 7087,
      "became": 7088,
      "twitterberry": 7089,
      "brandy": 7090,
      "triple": 7091,
      "httptwitpiccom6b": 7092,
      "httptwitpiccom6g": 7093,
      "junkie": 7094,
      "relig": 7095,
      "route": 7096,
      "melody": 7097,
      "rated": 7098,
      "sleeps": 7099,
      "zyuuup": 7100,
      "hunter": 7101,
      "blush": 7102,
      "snl": 7103,
      "pretend": 7104,
      "optim": 7105,
      "recital": 7106,
      "inge": 7107,
      "vend": 7108,
      "grim": 7109,
      "bras": 7110,
      "wifey": 7111,
      "700": 7112,
      "dms": 7113,
      "vick": 7114,
      "sole": 7115,
      "liber": 7116,
      "accent": 7117,
      "colin": 7118,
      "httpww": 7119,
      "howard": 7120,
      "prison": 7121,
      "ggers": 7122,
      "dul": 7123,
      "utter": 7124,
      "educ": 7125,
      "shattered": 7126,
      "1am": 7127,
      "nand": 7128,
      "eddie": 7129,
      "pul": 7130,
      "dresses": 7131,
      "vancouver": 7132,
      "deter": 7133,
      "racing": 7134,
      "600": 7135,
      "rack": 7136,
      "sj": 7137,
      "invest": 7138,
      "beers": 7139,
      "caps": 7140,
      "reader": 7141,
      "march": 7142,
      "forest": 7143,
      "pains": 7144,
      "charity": 7145,
      "vanilla": 7146,
      "africa": 7147,
      "ego": 7148,
      "thatd": 7149,
      "sheep": 7150,
      "roger": 7151,
      "monitor": 7152,
      "listenin": 7153,
      "stays": 7154,
      "menu": 7155,
      "signal": 7156,
      "purse": 7157,
      "therealjordin": 7158,
      "mamp": 7159,
      "coy": 7160,
      "cud": 7161,
      "davis": 7162,
      "songzyuuup": 7163,
      "valent": 7164,
      "russell": 7165,
      "centre": 7166,
      "stressful": 7167,
      "bruce": 7168,
      "polish": 7169,
      "kra": 7170,
      "itquot": 7171,
      "sti": 7172,
      "arg": 7173,
      "aser": 7174,
      "albums": 7175,
      "riot": 7176,
      "moves": 7177,
      "cuts": 7178,
      "braces": 7179,
      "suns": 7180,
      "ggles": 7181,
      "curse": 7182,
      "tuned": 7183,
      "diff": 7184,
      "campus": 7185,
      "drugs": 7186,
      "advant": 7187,
      "cleveland": 7188,
      "6pm": 7189,
      "pff": 7190,
      "rx": 7191,
      "habit": 7192,
      "sofa": 7193,
      "separ": 7194,
      "roberts": 7195,
      "bold": 7196,
      "sorta": 7197,
      "scra": 7198,
      "clark": 7199,
      "shocked": 7200,
      "starr": 7201,
      "burgers": 7202,
      "chilly": 7203,
      "teachers": 7204,
      "anime": 7205,
      "entertainment": 7206,
      "dangerous": 7207,
      "neighbours": 7208,
      "kis": 7209,
      "attempting": 7210,
      "alys": 7211,
      "hoe": 7212,
      "lag": 7213,
      "usb": 7214,
      "somewhat": 7215,
      "mming": 7216,
      "crim": 7217,
      "hundred": 7218,
      "murray": 7219,
      "gimme": 7220,
      "cw": 7221,
      "lean": 7222,
      "aman": 7223,
      "lib": 7224,
      "poll": 7225,
      "cath": 7226,
      "ookie": 7227,
      "bles": 7228,
      "cyn": 7229,
      "boarding": 7230,
      "records": 7231,
      "randomly": 7232,
      "options": 7233,
      "srsly": 7234,
      "remain": 7235,
      "soda": 7236,
      "soap": 7237,
      "cav": 7238,
      "sponge": 7239,
      "scor": 7240,
      "fier": 7241,
      "boobs": 7242,
      "facebookcom": 7243,
      "jumping": 7244,
      "drum": 7245,
      "thunderstorms": 7246,
      "emergency": 7247,
      "ua": 7248,
      "chile": 7249,
      "uns": 7250,
      "miz": 7251,
      "everythings": 7252,
      "carrie": 7253,
      "boredom": 7254,
      "kimkardashian": 7255,
      "nancy": 7256,
      "2b": 7257,
      "2night": 7258,
      "hir": 7259,
      "wre": 7260,
      "wand": 7261,
      "wie": 7262,
      "nov": 7263,
      "coat": 7264,
      "decor": 7265,
      "ples": 7266,
      "follows": 7267,
      "rested": 7268,
      "christine": 7269,
      "domain": 7270,
      "cheesecake": 7271,
      "flags": 7272,
      "federer": 7273,
      "niture": 7274,
      "manila": 7275,
      "slo": 7276,
      "adult": 7277,
      "advert": 7278,
      "backyard": 7279,
      "blew": 7280,
      "apples": 7281,
      "besties": 7282,
      "barbie": 7283,
      "higher": 7284,
      "markhoppus": 7285,
      "venge": 7286,
      "aaaah": 7287,
      "purchase": 7288,
      "products": 7289,
      "latte": 7290,
      "heaps": 7291,
      "stac": 7292,
      "acou": 7293,
      "unhappy": 7294,
      "rix": 7295,
      "riel": 7296,
      "maggie": 7297,
      "sake": 7298,
      "thankfully": 7299,
      "prior": 7300,
      "fitness": 7301,
      "titanic": 7302,
      "tempted": 7303,
      "vanessa": 7304,
      "61": 7305,
      "kp": 7306,
      "mous": 7307,
      "ined": 7308,
      "tox": 7309,
      "neu": 7310,
      "cody": 7311,
      "sickness": 7312,
      "kinds": 7313,
      "curly": 7314,
      "blake": 7315,
      "emailed": 7316,
      "0o": 7317,
      "cg": 7318,
      "pile": 7319,
      "inbox": 7320,
      "toss": 7321,
      "twas": 7322,
      "depart": 7323,
      "anya": 7324,
      "madness": 7325,
      "1130": 7326,
      "gene": 7327,
      "ivan": 7328,
      "shipping": 7329,
      "recorded": 7330,
      "bucket": 7331,
      "breeze": 7332,
      "culture": 7333,
      "fn": 7334,
      "git": 7335,
      "ordin": 7336,
      "amarie": 7337,
      "alee": 7338,
      "built": 7339,
      "httpp": 7340,
      "iga": 7341,
      "madden": 7342,
      "stell": 7343,
      "hott": 7344,
      "legit": 7345,
      "dvr": 7346,
      "effin": 7347,
      "include": 7348,
      "gaming": 7349,
      "survived": 7350,
      "jir": 7351,
      "esign": 7352,
      "nokia": 7353,
      "mau": 7354,
      "inky": 7355,
      "poly": 7356,
      "dylan": 7357,
      "carl": 7358,
      "believ": 7359,
      "brave": 7360,
      "worthy": 7361,
      "hayley": 7362,
      "whale": 7363,
      "sweden": 7364,
      "tornado": 7365,
      "bbs": 7366,
      "tracy": 7367,
      "10pm": 7368,
      "bikin": 7369,
      "nicol": 7370,
      "coverage": 7371,
      "relative": 7372,
      "uz": 7373,
      "polar": 7374,
      "stopping": 7375,
      "overnight": 7376,
      "sonny": 7377,
      "loaded": 7378,
      "painted": 7379,
      "reports": 7380,
      "detroit": 7381,
      "inated": 7382,
      "rett": 7383,
      "soaked": 7384,
      "aband": 7385,
      "dew": 7386,
      "agle": 7387,
      "addictive": 7388,
      "urge": 7389,
      "fron": 7390,
      "plum": 7391,
      "ultimate": 7392,
      "alove": 7393,
      "korean": 7394,
      "reznor": 7395,
      "noooooo": 7396,
      "nause": 7397,
      "slim": 7398,
      "stern": 7399,
      "services": 7400,
      "jaja": 7401,
      "string": 7402,
      "ivity": 7403,
      "luvs": 7404,
      "presents": 7405,
      "bart": 7406,
      "cind": 7407,
      "zle": 7408,
      "backstreet": 7409,
      "examp": 7410,
      "humor": 7411,
      "bible": 7412,
      "creating": 7413,
      "benjam": 7414,
      "favorites": 7415,
      "knw": 7416,
      "purpose": 7417,
      "safely": 7418,
      "experi": 7419,
      "furniture": 7420,
      "distance": 7421,
      "management": 7422,
      "5pm": 7423,
      "ips": 7424,
      "amster": 7425,
      "milton": 7426,
      "joking": 7427,
      "dislike": 7428,
      "turtle": 7429,
      "15th": 7430,
      "recovery": 7431,
      "sneezing": 7432,
      "keen": 7433,
      "leavin": 7434,
      "bestfriend": 7435,
      "volley": 7436,
      "falls": 7437,
      "celeb": 7438,
      "reminder": 7439,
      "ikea": 7440,
      "tent": 7441,
      "uff": 7442,
      "wks": 7443,
      "xie": 7444,
      "remove": 7445,
      "arah": 7446,
      "pect": 7447,
      "debby": 7448,
      "phon": 7449,
      "slam": 7450,
      "studies": 7451,
      "discount": 7452,
      "pork": 7453,
      "kayla": 7454,
      "audrey": 7455,
      "convince": 7456,
      "fis": 7457,
      "kok": 7458,
      "tys": 7459,
      "yaaay": 7460,
      "heyyy": 7461,
      "seac": 7462,
      "abi": 7463,
      "abit": 7464,
      "ppie": 7465,
      "ridge": 7466,
      "eyed": 7467,
      "portu": 7468,
      "tg": 7469,
      "sten": 7470,
      "finan": 7471,
      "mizz": 7472,
      "ives": 7473,
      "aku": 7474,
      "paste": 7475,
      "awesomeness": 7476,
      "letters": 7477,
      "30second": 7478,
      "charles": 7479,
      "views": 7480,
      "matters": 7481,
      "tourna": 7482,
      "httpblipfm6": 7483,
      "customers": 7484,
      "nashville": 7485,
      "amilano": 7486,
      "booooo": 7487,
      "knot": 7488,
      "uce": 7489,
      "indoors": 7490,
      "replaced": 7491,
      "hale": 7492,
      "soy": 7493,
      "seas": 7494,
      "neat": 7495,
      "boards": 7496,
      "quotupquot": 7497,
      "enty": 7498,
      "countdown": 7499,
      "fallon": 7500,
      "retarded": 7501,
      "eg": 7502,
      "ewww": 7503,
      "fie": 7504,
      "icole": 7505,
      "lyah": 7506,
      "aber": 7507,
      "soundtrack": 7508,
      "icial": 7509,
      "celebs": 7510,
      "beatles": 7511,
      "answering": 7512,
      "distracted": 7513,
      "tacos": 7514,
      "umbrella": 7515,
      "fw": 7516,
      "lr": 7517,
      "swell": 7518,
      "rewind": 7519,
      "stats": 7520,
      "among": 7521,
      "twitterville": 7522,
      "sadden": 7523,
      "minim": 7524,
      "skill": 7525,
      "messy": 7526,
      "horses": 7527,
      "fails": 7528,
      "washington": 7529,
      "silence": 7530,
      "pussy": 7531,
      "lance": 7532,
      "sasha": 7533,
      "reve": 7534,
      "pey": 7535,
      "hardest": 7536,
      "bache": 7537,
      "choc": 7538,
      "task": 7539,
      "justice": 7540,
      "tools": 7541,
      "quota": 7542,
      "fuzzy": 7543,
      "gul": 7544,
      "stomars": 7545,
      "margar": 7546,
      "trin": 7547,
      "supp": 7548,
      "viole": 7549,
      "skies": 7550,
      "cycling": 7551,
      "fected": 7552,
      "celebration": 7553,
      "settings": 7554,
      "features": 7555,
      "9th": 7556,
      "bh": 7557,
      "fts": 7558,
      "gna": 7559,
      "pjs": 7560,
      "inch": 7561,
      "players": 7562,
      "descri": 7563,
      "17th": 7564,
      "childhood": 7565,
      "chasing": 7566,
      "broadcast": 7567,
      "advance": 7568,
      "accomplished": 7569,
      "amsterdam": 7570,
      "dp": 7571,
      "gno": 7572,
      "gian": 7573,
      "rj": 7574,
      "stitch": 7575,
      "strip": 7576,
      "melon": 7577,
      "aling": 7578,
      "colo": 7579,
      "workshop": 7580,
      "articles": 7581,
      "mms": 7582,
      "brea": 7583,
      "balance": 7584,
      "crossing": 7585,
      "suffer": 7586,
      "praise": 7587,
      "alyssamilano": 7588,
      "reckon": 7589,
      "30secondstomars": 7590,
      "rina": 7591,
      "alu": 7592,
      "forms": 7593,
      "disc": 7594,
      "trips": 7595,
      "handsome": 7596,
      "anatomy": 7597,
      "elect": 7598,
      "drums": 7599,
      "beyonce": 7600,
      "crime": 7601,
      "routine": 7602,
      "mariahcarey": 7603,
      "writers": 7604,
      "concentrate": 7605,
      "canadian": 7606,
      "bia": 7607,
      "laz": 7608,
      "peas": 7609,
      "jojo": 7610,
      "weekly": 7611,
      "brick": 7612,
      "realy": 7613,
      "blessings": 7614,
      "quothe": 7615,
      "mmmmmmmm": 7616,
      "performing": 7617,
      "appropri": 7618,
      "bastard": 7619,
      "fen": 7620,
      "h2": 7621,
      "yar": 7622,
      "yelyah": 7623,
      "quotno": 7624,
      "httptwitpiccom69": 7625,
      "mitchell": 7626,
      "laughs": 7627,
      "spoiled": 7628,
      "basement": 7629,
      "yucky": 7630,
      "adium": 7631,
      "kj": 7632,
      "lers": 7633,
      "conver": 7634,
      "whose": 7635,
      "yesterdays": 7636,
      "rocket": 7637,
      "nicer": 7638,
      "httpmylocme4": 7639,
      "motivated": 7640,
      "divorce": 7641,
      "kool": 7642,
      "rou": 7643,
      "ramp": 7644,
      "thick": 7645,
      "bea": 7646,
      "allie": 7647,
      "whel": 7648,
      "mak": 7649,
      "naps": 7650,
      "gree": 7651,
      "headin": 7652,
      "salon": 7653,
      "sausage": 7654,
      "rugby": 7655,
      "fh": 7656,
      "lena": 7657,
      "ald": 7658,
      "unexpected": 7659,
      "sorting": 7660,
      "aug": 7661,
      "carol": 7662,
      "brew": 7663,
      "visible": 7664,
      "giveaway": 7665,
      "chop": 7666,
      "texted": 7667,
      "value": 7668,
      "graphics": 7669,
      "stalk": 7670,
      "motion": 7671,
      "frame": 7672,
      "strike": 7673,
      "andrea": 7674,
      "khlo": 7675,
      "android": 7676,
      "seacrest": 7677,
      "inte": 7678,
      "yous": 7679,
      "alli": 7680,
      "liv": 7681,
      "tia": 7682,
      "iry": 7683,
      "hols": 7684,
      "constru": 7685,
      "disaster": 7686,
      "eeep": 7687,
      "christin": 7688,
      "physical": 7689,
      "modern": 7690,
      "ured": 7691,
      "ugg": 7692,
      "erm": 7693,
      "stab": 7694,
      "eet": 7695,
      "amn": 7696,
      "upcoming": 7697,
      "rosie": 7698,
      "yell": 7699,
      "derby": 7700,
      "display": 7701,
      "photoshoot": 7702,
      "horny": 7703,
      "seasons": 7704,
      "docs": 7705,
      "bullshit": 7706,
      "costs": 7707,
      "powers": 7708,
      "h8": 7709,
      "acu": 7710,
      "cathy": 7711,
      "wax": 7712,
      "shoulders": 7713,
      "seren": 7714,
      "matty": 7715,
      "httpblipfm5": 7716,
      "sunburned": 7717,
      "yelyahwilliams": 7718,
      "0n": 7719,
      "mitch": 7720,
      "oj": 7721,
      "range": 7722,
      "invent": 7723,
      "recess": 7724,
      "bledon": 7725,
      "msy": 7726,
      "10th": 7727,
      "httpbitly2": 7728,
      "httpbitlyq": 7729,
      "gory": 7730,
      "quired": 7731,
      "memorial": 7732,
      "noodle": 7733,
      "1x": 7734,
      "9pm": 7735,
      "bj": 7736,
      "owly": 7737,
      "overall": 7738,
      "oool": 7739,
      "halfway": 7740,
      "strength": 7741,
      "walls": 7742,
      "refreshing": 7743,
      "paradise": 7744,
      "suspended": 7745,
      "oak": 7746,
      "reject": 7747,
      "hab": 7748,
      "icip": 7749,
      "alle": 7750,
      "unit": 7751,
      "rier": 7752,
      "upside": 7753,
      "coin": 7754,
      "goodnite": 7755,
      "twitterers": 7756,
      "brb": 7757,
      "blend": 7758,
      "compan": 7759,
      "wwwmyspacecom": 7760,
      "rockets": 7761,
      "teddy": 7762,
      "visited": 7763,
      "knees": 7764,
      "michigan": 7765,
      "fierce": 7766,
      "tournament": 7767,
      "stood": 7768,
      "loli": 7769,
      "bueno": 7770,
      "bler": 7771,
      "torture": 7772,
      "passes": 7773,
      "wimbledon": 7774,
      "development": 7775,
      "necessary": 7776,
      "marriage": 7777,
      "fart": 7778,
      "pace": 7779,
      "anc": 7780,
      "orders": 7781,
      "adver": 7782,
      "waffle": 7783,
      "darren": 7784,
      "lipse": 7785,
      "prize": 7786,
      "absolute": 7787,
      "gigs": 7788,
      "temper": 7789,
      "kirsty": 7790,
      "recogni": 7791,
      "delivered": 7792,
      "tokyo": 7793,
      "president": 7794,
      "3x": 7795,
      "lur": 7796,
      "mv": 7797,
      "ington": 7798,
      "oward": 7799,
      "usive": 7800,
      "vibes": 7801,
      "httptwitpiccom67": 7802,
      "smic": 7803,
      "brigh": 7804,
      "90s": 7805,
      "gigg": 7806,
      "ashamed": 7807,
      "blanket": 7808,
      "jeez": 7809,
      "mystery": 7810,
      "dessert": 7811,
      "surprisingly": 7812,
      "opposite": 7813,
      "bane": 7814,
      "vans": 7815,
      "zin": 7816,
      "rik": 7817,
      "nighter": 7818,
      "ception": 7819,
      "poe": 7820,
      "mikes": 7821,
      "fired": 7822,
      "cyber": 7823,
      "jax": 7824,
      "fying": 7825,
      "katyperry": 7826,
      "eth": 7827,
      "hence": 7828,
      "tack": 7829,
      "vou": 7830,
      "chet": 7831,
      "immedi": 7832,
      "mock": 7833,
      "suic": 7834,
      "spon": 7835,
      "carrot": 7836,
      "portland": 7837,
      "alexis": 7838,
      "bonus": 7839,
      "christina": 7840,
      "dolls": 7841,
      "eurovision": 7842,
      "ella": 7843,
      "fang": 7844,
      "thir": 7845,
      "anderson": 7846,
      "belt": 7847,
      "bub": 7848,
      "raven": 7849,
      "indie": 7850,
      "discover": 7851,
      "parker": 7852,
      "tragic": 7853,
      "contem": 7854,
      "kiwi": 7855,
      "relaxed": 7856,
      "bond": 7857,
      "batter": 7858,
      "decisions": 7859,
      "acoustic": 7860,
      "311": 7861,
      "bend": 7862,
      "hou": 7863,
      "mour": 7864,
      "n0": 7865,
      "wb": 7866,
      "itation": 7867,
      "nold": 7868,
      "quil": 7869,
      "cod": 7870,
      "cobra": 7871,
      "iel": 7872,
      "shakes": 7873,
      "douche": 7874,
      "drops": 7875,
      "patience": 7876,
      "factor": 7877,
      "grounded": 7878,
      "eclipse": 7879,
      "holland": 7880,
      "trentreznor": 7881,
      "pf": 7882,
      "rash": 7883,
      "x0": 7884,
      "thon": 7885,
      "ader": 7886,
      "format": 7887,
      "terry": 7888,
      "dose": 7889,
      "endless": 7890,
      "fudge": 7891,
      "offs": 7892,
      "wales": 7893,
      "indust": 7894,
      "rumor": 7895,
      "nyt": 7896,
      "timber": 7897,
      "adrian": 7898,
      "dissapointed": 7899,
      "familiar": 7900,
      "2u": 7901,
      "kni": 7902,
      "oe": 7903,
      "pid": 7904,
      "oft": 7905,
      "combo": 7906,
      "fuzz": 7907,
      "cheaper": 7908,
      "indones": 7909,
      "tina": 7910,
      "attitude": 7911,
      "ists": 7912,
      "spoon": 7913,
      "ahhhhhh": 7914,
      "politics": 7915,
      "advantage": 7916,
      "ninten": 7917,
      "atly": 7918,
      "metho": 7919,
      "alian": 7920,
      "terms": 7921,
      "dome": 7922,
      "funk": 7923,
      "marcus": 7924,
      "jumped": 7925,
      "jpg": 7926,
      "greetings": 7927,
      "ahahaha": 7928,
      "iremember": 7929,
      "mps": 7930,
      "occas": 7931,
      "twe": 7932,
      "ariz": 7933,
      "beloved": 7934,
      "cony": 7935,
      "sunset": 7936,
      "harsh": 7937,
      "dav": 7938,
      "syty": 7939,
      "housework": 7940,
      "runner": 7941,
      "20th": 7942,
      "kai": 7943,
      "surround": 7944,
      "samanth": 7945,
      "karao": 7946,
      "bies": 7947,
      "tf": 7948,
      "wright": 7949,
      "yg": 7950,
      "tow": 7951,
      "onna": 7952,
      "amc": 7953,
      "unbeliev": 7954,
      "feeding": 7955,
      "mult": 7956,
      "prot": 7957,
      "hulu": 7958,
      "disappear": 7959,
      "kerry": 7960,
      "interviews": 7961,
      "llllllll": 7962,
      "necklace": 7963,
      "nelson": 7964,
      "shelby": 7965,
      "bracelet": 7966,
      "hail": 7967,
      "lecture": 7968,
      "asi": 7969,
      "lder": 7970,
      "poem": 7971,
      "fia": 7972,
      "particip": 7973,
      "damage": 7974,
      "vast": 7975,
      "county": 7976,
      "19th": 7977,
      "jenna": 7978,
      "rays": 7979,
      "potential": 7980,
      "ironing": 7981,
      "gifts": 7982,
      "tetris": 7983,
      "lobster": 7984,
      "pong": 7985,
      "qs": 7986,
      "lik": 7987,
      "lian": 7988,
      "outing": 7989,
      "worship": 7990,
      "coding": 7991,
      "agne": 7992,
      "joshu": 7993,
      "earn": 7994,
      "rides": 7995,
      "websites": 7996,
      "crashes": 7997,
      "peaceful": 7998,
      "wkend": 7999
    },
    "merges": [
      [
        "i",
        "n"
      ],
      [
        "t",
        "h"
      ],
      [
        "a",
        "n"
      ],
      [
        "e",
        "r"
      ],
      [
        "t",
        "o"
      ],
      [
        "o",
        "u"
      ],
      [
        "o",
        "n"
      ],
      [
        "in",
        "g"
      ],
      [
        "r",
        "e"
      ],
      [
        "a",
        "t"
      ],
      [
        "i",
        "t"
      ],
      [
        "s",
        "t"
      ],
      [
        "o",
        "r"
      ],
      [
        "th",
        "e"
      ],
      [
        "l",
        "l"
      ],
      [
        "m",
        "e"
      ],
      [
        "i",
        "s"
      ],
      [
        "h",
        "a"
      ],
      [
        "e",
        "e"
      ],
      [
        "a",
        "y"
      ],
      [
        "o",
        "o"
      ],
      [
        "v",
        "e"
      ],
      [
        "a",
        "r"
      ],
      [
        "o",
        "w"
      ],
      [
        "l",
        "e"
      ],
      [
        "y",
        "ou"
      ],
      [
        "an",
        "d"
      ],
      [
        "e",
        "n"
      ],
      [
        "c",
        "h"
      ],
      [
        "m",
        "y"
      ],
      [
        "e",
        "d"
      ],
      [
        "e",
        "s"
      ],
      [
        "o",
        "t"
      ],
      [
        "a",
        "s"
      ],
      [
        "s",
        "o"
      ],
      [
        "b",
        "e"
      ],
      [
        "i",
        "c"
      ],
      [
        "a",
        "d"
      ],
      [
        "g",
        "h"
      ],
      [
        "a",
        "m"
      ],
      [
        "a",
        "l"
      ],
      [
        "i",
        "m"
      ],
      [
        "d",
        "ay"
      ],
      [
        "o",
        "f"
      ],
      [
        "f",
        "or"
      ],
      [
        "l",
        "o"
      ],
      [
        "a",
        "ll"
      ],
      [
        "l",
        "i"
      ],
      [
        "w",
        "h"
      ],
      [
        "e",
        "t"
      ],
      [
        "o",
        "m"
      ],
      [
        "b",
        "u"
      ],
      [
        "a",
        "c"
      ],
      [
        "w",
        "i"
      ],
      [
        "u",
        "n"
      ],
      [
        "h",
        "e"
      ],
      [
        "l",
        "y"
      ],
      [
        "k",
        "e"
      ],
      [
        "i",
        "d"
      ],
      [
        "g",
        "o"
      ],
      [
        "t",
        "i"
      ],
      [
        "s",
        "e"
      ],
      [
        "gh",
        "t"
      ],
      [
        "th",
        "at"
      ],
      [
        "v",
        "er"
      ],
      [
        "r",
        "i"
      ],
      [
        "ou",
        "t"
      ],
      [
        "s",
        "h"
      ],
      [
        "on",
        "e"
      ],
      [
        "u",
        "p"
      ],
      [
        "ha",
        "ve"
      ],
      [
        "n",
        "ow"
      ],
      [
        "u",
        "st"
      ],
      [
        "w",
        "e"
      ],
      [
        "n",
        "t"
      ],
      [
        "l",
        "d"
      ],
      [
        "an",
        "t"
      ],
      [
        "t",
        "er"
      ],
      [
        "bu",
        "t"
      ],
      [
        "d",
        "o"
      ],
      [
        "n",
        "e"
      ],
      [
        "w",
        "or"
      ],
      [
        "i",
        "r"
      ],
      [
        "h",
        "o"
      ],
      [
        "r",
        "o"
      ],
      [
        "j",
        "ust"
      ],
      [
        "er",
        "e"
      ],
      [
        "m",
        "o"
      ],
      [
        "oo",
        "d"
      ],
      [
        "t",
        "w"
      ],
      [
        "a",
        "b"
      ],
      [
        "wi",
        "th"
      ],
      [
        "n",
        "o"
      ],
      [
        "u",
        "r"
      ],
      [
        "it",
        "s"
      ],
      [
        "g",
        "et"
      ],
      [
        "i",
        "ll"
      ],
      [
        "a",
        "re"
      ],
      [
        "n",
        "ot"
      ],
      [
        "w",
        "as"
      ],
      [
        "q",
        "u"
      ],
      [
        "n",
        "i"
      ],
      [
        "c",
        "k"
      ],
      [
        "l",
        "a"
      ],
      [
        "r",
        "a"
      ],
      [
        "r",
        "y"
      ],
      [
        "p",
        "e"
      ],
      [
        "m",
        "a"
      ],
      [
        "p",
        "p"
      ],
      [
        "c",
        "o"
      ],
      [
        "t",
        "t"
      ],
      [
        "g",
        "ood"
      ],
      [
        "on",
        "t"
      ],
      [
        "c",
        "om"
      ],
      [
        "wor",
        "k"
      ],
      [
        "th",
        "is"
      ],
      [
        "u",
        "s"
      ],
      [
        "all",
        "y"
      ],
      [
        "ac",
        "k"
      ],
      [
        "d",
        "e"
      ],
      [
        "s",
        "u"
      ],
      [
        "a",
        "w"
      ],
      [
        "a",
        "g"
      ],
      [
        "th",
        "er"
      ],
      [
        "lo",
        "ve"
      ],
      [
        "ou",
        "ld"
      ],
      [
        "en",
        "d"
      ],
      [
        "ni",
        "ght"
      ],
      [
        "so",
        "me"
      ],
      [
        "n",
        "a"
      ],
      [
        "k",
        "s"
      ],
      [
        "m",
        "or"
      ],
      [
        "th",
        "an"
      ],
      [
        "li",
        "ke"
      ],
      [
        "g",
        "ot"
      ],
      [
        "at",
        "e"
      ],
      [
        "t",
        "e"
      ],
      [
        "s",
        "s"
      ],
      [
        "i",
        "e"
      ],
      [
        "ti",
        "me"
      ],
      [
        "y",
        "e"
      ],
      [
        "is",
        "s"
      ],
      [
        "to",
        "o"
      ],
      [
        "f",
        "r"
      ],
      [
        "in",
        "k"
      ],
      [
        "c",
        "e"
      ],
      [
        "th",
        "ing"
      ],
      [
        "h",
        "tt"
      ],
      [
        "you",
        "r"
      ],
      [
        "b",
        "o"
      ],
      [
        "qu",
        "ot"
      ],
      [
        "s",
        "ee"
      ],
      [
        "to",
        "day"
      ],
      [
        "is",
        "h"
      ],
      [
        "d",
        "ont"
      ],
      [
        "p",
        "o"
      ],
      [
        "ar",
        "t"
      ],
      [
        "tw",
        "it"
      ],
      [
        "a",
        "h"
      ],
      [
        "f",
        "ee"
      ],
      [
        "w",
        "ee"
      ],
      [
        "ver",
        "y"
      ],
      [
        "go",
        "ing"
      ],
      [
        "wh",
        "at"
      ],
      [
        "c",
        "ant"
      ],
      [
        "htt",
        "p"
      ],
      [
        "f",
        "o"
      ],
      [
        "m",
        "iss"
      ],
      [
        "ha",
        "ha"
      ],
      [
        "i",
        "on"
      ],
      [
        "p",
        "l"
      ],
      [
        "an",
        "y"
      ],
      [
        "f",
        "e"
      ],
      [
        "ee",
        "p"
      ],
      [
        "b",
        "ack"
      ],
      [
        "f",
        "in"
      ],
      [
        "t",
        "a"
      ],
      [
        "ic",
        "k"
      ],
      [
        "m",
        "i"
      ],
      [
        "lo",
        "l"
      ],
      [
        "i",
        "f"
      ],
      [
        "c",
        "an"
      ],
      [
        "on",
        "g"
      ],
      [
        "c",
        "a"
      ],
      [
        "er",
        "s"
      ],
      [
        "am",
        "p"
      ],
      [
        "k",
        "now"
      ],
      [
        "w",
        "ant"
      ],
      [
        "oo",
        "k"
      ],
      [
        "ou",
        "r"
      ],
      [
        "fr",
        "om"
      ],
      [
        "wi",
        "ll"
      ],
      [
        "e",
        "x"
      ],
      [
        "j",
        "o"
      ],
      [
        "f",
        "u"
      ],
      [
        "g",
        "u"
      ],
      [
        "ne",
        "w"
      ],
      [
        "m",
        "m"
      ],
      [
        "ic",
        "e"
      ],
      [
        "p",
        "le"
      ],
      [
        "i",
        "l"
      ],
      [
        "at",
        "ch"
      ],
      [
        "n",
        "ing"
      ],
      [
        "d",
        "id"
      ],
      [
        "n",
        "d"
      ],
      [
        "of",
        "f"
      ],
      [
        "m",
        "u"
      ],
      [
        "s",
        "p"
      ],
      [
        "w",
        "a"
      ],
      [
        "fee",
        "l"
      ],
      [
        "w",
        "ay"
      ],
      [
        "l",
        "u"
      ],
      [
        "ha",
        "d"
      ],
      [
        "a",
        "in"
      ],
      [
        "ab",
        "out"
      ],
      [
        "r",
        "ow"
      ],
      [
        "t",
        "ing"
      ],
      [
        "ee",
        "d"
      ],
      [
        "i",
        "ve"
      ],
      [
        "g",
        "re"
      ],
      [
        "re",
        "ally"
      ],
      [
        "th",
        "ink"
      ],
      [
        "we",
        "ll"
      ],
      [
        "t",
        "s"
      ],
      [
        "g",
        "e"
      ],
      [
        "h",
        "ow"
      ],
      [
        "o",
        "h"
      ],
      [
        "p",
        "h"
      ],
      [
        "re",
        "ad"
      ],
      [
        "s",
        "l"
      ],
      [
        "re",
        "d"
      ],
      [
        "f",
        "ri"
      ],
      [
        "en",
        "t"
      ],
      [
        "ho",
        "me"
      ],
      [
        "p",
        "ic"
      ],
      [
        "mo",
        "re"
      ],
      [
        "in",
        "e"
      ],
      [
        "w",
        "atch"
      ],
      [
        "es",
        "s"
      ],
      [
        "f",
        "a"
      ],
      [
        "ou",
        "gh"
      ],
      [
        "oo",
        "l"
      ],
      [
        "the",
        "y"
      ],
      [
        "it",
        "e"
      ],
      [
        "st",
        "ill"
      ],
      [
        "n",
        "eed"
      ],
      [
        "i",
        "g"
      ],
      [
        "s",
        "a"
      ],
      [
        "ee",
        "n"
      ],
      [
        "ar",
        "d"
      ],
      [
        "ch",
        "e"
      ],
      [
        "wee",
        "k"
      ],
      [
        "th",
        "ere"
      ],
      [
        "in",
        "d"
      ],
      [
        "t",
        "u"
      ],
      [
        "f",
        "un"
      ],
      [
        "than",
        "ks"
      ],
      [
        "id",
        "e"
      ],
      [
        "wh",
        "en"
      ],
      [
        "v",
        "ing"
      ],
      [
        "twit",
        "ter"
      ],
      [
        "ho",
        "pe"
      ],
      [
        "ou",
        "nd"
      ],
      [
        "ha",
        "pp"
      ],
      [
        "w",
        "w"
      ],
      [
        "co",
        "me"
      ],
      [
        "la",
        "st"
      ],
      [
        "k",
        "ing"
      ],
      [
        "a",
        "a"
      ],
      [
        "b",
        "y"
      ],
      [
        "h",
        "ere"
      ],
      [
        "mu",
        "ch"
      ],
      [
        "h",
        "er"
      ],
      [
        "r",
        "u"
      ],
      [
        "p",
        "re"
      ],
      [
        "e",
        "ve"
      ],
      [
        "ou",
        "s"
      ],
      [
        "e",
        "very"
      ],
      [
        "ha",
        "s"
      ],
      [
        "ac",
        "e"
      ],
      [
        "h",
        "h"
      ],
      [
        "sl",
        "eep"
      ],
      [
        "m",
        "an"
      ],
      [
        "c",
        "on"
      ],
      [
        "f",
        "f"
      ],
      [
        "oo",
        "oo"
      ],
      [
        "g",
        "r"
      ],
      [
        "mor",
        "row"
      ],
      [
        "ll",
        "ow"
      ],
      [
        "the",
        "n"
      ],
      [
        "as",
        "s"
      ],
      [
        "mor",
        "ning"
      ],
      [
        "c",
        "u"
      ],
      [
        "p",
        "r"
      ],
      [
        "y",
        "s"
      ],
      [
        "w",
        "ish"
      ],
      [
        "gre",
        "at"
      ],
      [
        "s",
        "ad"
      ],
      [
        "to",
        "morrow"
      ],
      [
        "p",
        "ro"
      ],
      [
        "s",
        "to"
      ],
      [
        "b",
        "r"
      ],
      [
        "b",
        "een"
      ],
      [
        "s",
        "un"
      ],
      [
        "ow",
        "n"
      ],
      [
        "ri",
        "ght"
      ],
      [
        "wa",
        "it"
      ],
      [
        "ha",
        "r"
      ],
      [
        "fo",
        "llow"
      ],
      [
        "tw",
        "ee"
      ],
      [
        "a",
        "k"
      ],
      [
        "a",
        "f"
      ],
      [
        "ag",
        "ain"
      ],
      [
        "n",
        "y"
      ],
      [
        "that",
        "s"
      ],
      [
        "fri",
        "end"
      ],
      [
        "d",
        "i"
      ],
      [
        "w",
        "ould"
      ],
      [
        "d",
        "y"
      ],
      [
        "l",
        "ook"
      ],
      [
        "b",
        "ad"
      ],
      [
        "p",
        "u"
      ],
      [
        "b",
        "it"
      ],
      [
        "s",
        "or"
      ],
      [
        "u",
        "se"
      ],
      [
        "ra",
        "in"
      ],
      [
        "b",
        "er"
      ],
      [
        "m",
        "on"
      ],
      [
        "st",
        "u"
      ],
      [
        "at",
        "ion"
      ],
      [
        "d",
        "er"
      ],
      [
        "b",
        "le"
      ],
      [
        "l",
        "t"
      ],
      [
        "wh",
        "y"
      ],
      [
        "s",
        "c"
      ],
      [
        "c",
        "ould"
      ],
      [
        "it",
        "t"
      ],
      [
        "a",
        "u"
      ],
      [
        "read",
        "y"
      ],
      [
        "p",
        "er"
      ],
      [
        "o",
        "k"
      ],
      [
        "on",
        "ly"
      ],
      [
        "o",
        "ver"
      ],
      [
        "x",
        "x"
      ],
      [
        "o",
        "ther"
      ],
      [
        "m",
        "ar"
      ],
      [
        "wh",
        "o"
      ],
      [
        "st",
        "er"
      ],
      [
        "s",
        "ay"
      ],
      [
        "s",
        "he"
      ],
      [
        "sh",
        "ow"
      ],
      [
        "b",
        "l"
      ],
      [
        "did",
        "nt"
      ],
      [
        "be",
        "t"
      ],
      [
        "happ",
        "y"
      ],
      [
        "0",
        "0"
      ],
      [
        "an",
        "g"
      ],
      [
        "l",
        "f"
      ],
      [
        "g",
        "on"
      ],
      [
        "s",
        "ch"
      ],
      [
        "ma",
        "ke"
      ],
      [
        "g",
        "ir"
      ],
      [
        "to",
        "night"
      ],
      [
        "th",
        "ough"
      ],
      [
        "sor",
        "ry"
      ],
      [
        "x",
        "t"
      ],
      [
        "the",
        "m"
      ],
      [
        "sh",
        "ould"
      ],
      [
        "as",
        "e"
      ],
      [
        "d",
        "own"
      ],
      [
        "he",
        "ad"
      ],
      [
        "b",
        "ed"
      ],
      [
        "p",
        "s"
      ],
      [
        "day",
        "s"
      ],
      [
        "g",
        "l"
      ],
      [
        "y",
        "es"
      ],
      [
        "pl",
        "ay"
      ],
      [
        "w",
        "ere"
      ],
      [
        "le",
        "a"
      ],
      [
        "i",
        "le"
      ],
      [
        "i",
        "es"
      ],
      [
        "get",
        "ting"
      ],
      [
        "t",
        "ry"
      ],
      [
        "n",
        "ice"
      ],
      [
        "b",
        "ab"
      ],
      [
        "h",
        "i"
      ],
      [
        "af",
        "ter"
      ],
      [
        "g",
        "a"
      ],
      [
        "u",
        "m"
      ],
      [
        "gir",
        "l"
      ],
      [
        "f",
        "re"
      ],
      [
        "gon",
        "na"
      ],
      [
        "m",
        "ay"
      ],
      [
        "ye",
        "ah"
      ],
      [
        "bet",
        "ter"
      ],
      [
        "an",
        "s"
      ],
      [
        "do",
        "es"
      ],
      [
        "m",
        "s"
      ],
      [
        "me",
        "nt"
      ],
      [
        "m",
        "ad"
      ],
      [
        "g",
        "g"
      ],
      [
        "z",
        "z"
      ],
      [
        "e",
        "l"
      ],
      [
        "y",
        "y"
      ],
      [
        "c",
        "ar"
      ],
      [
        "t",
        "r"
      ],
      [
        "st",
        "art"
      ],
      [
        "f",
        "i"
      ],
      [
        "b",
        "ro"
      ],
      [
        "watch",
        "ing"
      ],
      [
        "o",
        "me"
      ],
      [
        "s",
        "i"
      ],
      [
        "st",
        "e"
      ],
      [
        "l",
        "ong"
      ],
      [
        "d",
        "a"
      ],
      [
        "ph",
        "one"
      ],
      [
        "fu",
        "l"
      ],
      [
        "h",
        "u"
      ],
      [
        "an",
        "na"
      ],
      [
        "pe",
        "o"
      ],
      [
        "sch",
        "ool"
      ],
      [
        "a",
        "pp"
      ],
      [
        "h",
        "our"
      ],
      [
        "peo",
        "ple"
      ],
      [
        "v",
        "ie"
      ],
      [
        "c",
        "t"
      ],
      [
        "twit",
        "pic"
      ],
      [
        "p",
        "art"
      ],
      [
        "c",
        "l"
      ],
      [
        "ca",
        "use"
      ],
      [
        "p",
        "a"
      ],
      [
        "d",
        "u"
      ],
      [
        "h",
        "im"
      ],
      [
        "you",
        "re"
      ],
      [
        "he",
        "y"
      ],
      [
        "m",
        "in"
      ],
      [
        "than",
        "k"
      ],
      [
        "k",
        "es"
      ],
      [
        "eve",
        "n"
      ],
      [
        "a",
        "ch"
      ],
      [
        "b",
        "re"
      ],
      [
        "twitpic",
        "com"
      ],
      [
        "e",
        "ar"
      ],
      [
        "h",
        "ate"
      ],
      [
        "http",
        "twitpiccom"
      ],
      [
        "w",
        "r"
      ],
      [
        "week",
        "end"
      ],
      [
        "ag",
        "e"
      ],
      [
        "es",
        "ome"
      ],
      [
        "am",
        "a"
      ],
      [
        "ti",
        "on"
      ],
      [
        "s",
        "up"
      ],
      [
        "th",
        "o"
      ],
      [
        "t",
        "al"
      ],
      [
        "t",
        "y"
      ],
      [
        "aw",
        "esome"
      ],
      [
        "d",
        "d"
      ],
      [
        "itt",
        "le"
      ],
      [
        "ou",
        "ght"
      ],
      [
        "d",
        "an"
      ],
      [
        "c",
        "i"
      ],
      [
        "ir",
        "st"
      ],
      [
        "ne",
        "xt"
      ],
      [
        "ne",
        "ver"
      ],
      [
        "so",
        "on"
      ],
      [
        "it",
        "y"
      ],
      [
        "ll",
        "y"
      ],
      [
        "wh",
        "ere"
      ],
      [
        "l",
        "ittle"
      ],
      [
        "be",
        "st"
      ],
      [
        "to",
        "n"
      ],
      [
        "li",
        "fe"
      ],
      [
        "u",
        "gh"
      ],
      [
        "le",
        "y"
      ],
      [
        "s",
        "ha"
      ],
      [
        "as",
        "h"
      ],
      [
        "fo",
        "re"
      ],
      [
        "f",
        "t"
      ],
      [
        "c",
        "ra"
      ],
      [
        "h",
        "is"
      ],
      [
        "ck",
        "s"
      ],
      [
        "li",
        "st"
      ],
      [
        "s",
        "er"
      ],
      [
        "at",
        "er"
      ],
      [
        "n",
        "er"
      ],
      [
        "v",
        "i"
      ],
      [
        "j",
        "e"
      ],
      [
        "ab",
        "le"
      ],
      [
        "way",
        "s"
      ],
      [
        "d",
        "r"
      ],
      [
        "ta",
        "ke"
      ],
      [
        "c",
        "ou"
      ],
      [
        "twee",
        "t"
      ],
      [
        "ye",
        "ar"
      ],
      [
        "c",
        "all"
      ],
      [
        "f",
        "irst"
      ],
      [
        "e",
        "ver"
      ],
      [
        "le",
        "s"
      ],
      [
        "in",
        "ter"
      ],
      [
        "s",
        "ick"
      ],
      [
        "work",
        "ing"
      ],
      [
        "r",
        "r"
      ],
      [
        "ou",
        "se"
      ],
      [
        "mo",
        "st"
      ],
      [
        "le",
        "t"
      ],
      [
        "he",
        "l"
      ],
      [
        "l",
        "ot"
      ],
      [
        "1",
        "0"
      ],
      [
        "su",
        "re"
      ],
      [
        "sh",
        "o"
      ],
      [
        "d",
        "am"
      ],
      [
        "ti",
        "red"
      ],
      [
        "w",
        "anna"
      ],
      [
        "m",
        "us"
      ],
      [
        "b",
        "oo"
      ],
      [
        "jo",
        "y"
      ],
      [
        "re",
        "am"
      ],
      [
        "e",
        "at"
      ],
      [
        "ple",
        "ase"
      ],
      [
        "do",
        "ing"
      ],
      [
        "be",
        "ing"
      ],
      [
        "ha",
        "ving"
      ],
      [
        "fin",
        "d"
      ],
      [
        "se",
        "lf"
      ],
      [
        "re",
        "al"
      ],
      [
        "m",
        "om"
      ],
      [
        "e",
        "st"
      ],
      [
        "l",
        "ate"
      ],
      [
        "or",
        "t"
      ],
      [
        "c",
        "ool"
      ],
      [
        "friend",
        "s"
      ],
      [
        "y",
        "ay"
      ],
      [
        "z",
        "ing"
      ],
      [
        "s",
        "y"
      ],
      [
        "b",
        "a"
      ],
      [
        "h",
        "ur"
      ],
      [
        "i",
        "i"
      ],
      [
        "h",
        "ot"
      ],
      [
        "mm",
        "er"
      ],
      [
        "d",
        "one"
      ],
      [
        "to",
        "r"
      ],
      [
        "feel",
        "ing"
      ],
      [
        "k",
        "eep"
      ],
      [
        "h",
        "ouse"
      ],
      [
        "oo",
        "o"
      ],
      [
        "w",
        "ont"
      ],
      [
        "every",
        "one"
      ],
      [
        "w",
        "on"
      ],
      [
        "al",
        "ways"
      ],
      [
        "b",
        "s"
      ],
      [
        "b",
        "ook"
      ],
      [
        "in",
        "s"
      ],
      [
        "j",
        "on"
      ],
      [
        "he",
        "ll"
      ],
      [
        "b",
        "ig"
      ],
      [
        "al",
        "ready"
      ],
      [
        "w",
        "o"
      ],
      [
        "d",
        "is"
      ],
      [
        "lu",
        "ck"
      ],
      [
        "b",
        "ir"
      ],
      [
        "t",
        "ri"
      ],
      [
        "mad",
        "e"
      ],
      [
        "an",
        "other"
      ],
      [
        "s",
        "ong"
      ],
      [
        "some",
        "thing"
      ],
      [
        "li",
        "ve"
      ],
      [
        "hel",
        "p"
      ],
      [
        "tt",
        "y"
      ],
      [
        "d",
        "s"
      ],
      [
        "p",
        "ar"
      ],
      [
        "p",
        "t"
      ],
      [
        "f",
        "ly"
      ],
      [
        "c",
        "r"
      ],
      [
        "in",
        "t"
      ],
      [
        "ti",
        "l"
      ],
      [
        "s",
        "k"
      ],
      [
        "gu",
        "ys"
      ],
      [
        "c",
        "y"
      ],
      [
        "lt",
        "3"
      ],
      [
        "e",
        "m"
      ],
      [
        "s",
        "in"
      ],
      [
        "c",
        "le"
      ],
      [
        "w",
        "ent"
      ],
      [
        "o",
        "ld"
      ],
      [
        "en",
        "joy"
      ],
      [
        "y",
        "a"
      ],
      [
        "li",
        "ght"
      ],
      [
        "be",
        "cause"
      ],
      [
        "s",
        "ound"
      ],
      [
        "l",
        "oo"
      ],
      [
        "c",
        "it"
      ],
      [
        "b",
        "lo"
      ],
      [
        "look",
        "ing"
      ],
      [
        "te",
        "ll"
      ],
      [
        "y",
        "et"
      ],
      [
        "hour",
        "s"
      ],
      [
        "v",
        "a"
      ],
      [
        "om",
        "g"
      ],
      [
        "an",
        "ge"
      ],
      [
        "i",
        "a"
      ],
      [
        "3",
        "0"
      ],
      [
        "v",
        "is"
      ],
      [
        "aw",
        "ay"
      ],
      [
        "bab",
        "y"
      ],
      [
        "mus",
        "ic"
      ],
      [
        "i",
        "ly"
      ],
      [
        "be",
        "fore"
      ],
      [
        "pre",
        "tty"
      ],
      [
        "bit",
        "ly"
      ],
      [
        "d",
        "es"
      ],
      [
        "does",
        "nt"
      ],
      [
        "i",
        "ous"
      ],
      [
        "http",
        "bitly"
      ],
      [
        "mo",
        "vie"
      ],
      [
        "su",
        "mmer"
      ],
      [
        "th",
        "ought"
      ],
      [
        "z",
        "y"
      ],
      [
        "j",
        "a"
      ],
      [
        "com",
        "p"
      ],
      [
        "ga",
        "me"
      ],
      [
        "le",
        "ss"
      ],
      [
        "m",
        "c"
      ],
      [
        "dam",
        "n"
      ],
      [
        "har",
        "d"
      ],
      [
        "ama",
        "zing"
      ],
      [
        "ee",
        "ee"
      ],
      [
        "g",
        "s"
      ],
      [
        "u",
        "t"
      ],
      [
        "k",
        "id"
      ],
      [
        "p",
        "en"
      ],
      [
        "may",
        "be"
      ],
      [
        "thing",
        "s"
      ],
      [
        "fin",
        "ish"
      ],
      [
        "j",
        "u"
      ],
      [
        "try",
        "ing"
      ],
      [
        "a",
        "ther"
      ],
      [
        "b",
        "b"
      ],
      [
        "c",
        "er"
      ],
      [
        "st",
        "ar"
      ],
      [
        "list",
        "en"
      ],
      [
        "is",
        "e"
      ],
      [
        "ex",
        "cit"
      ],
      [
        "gu",
        "ess"
      ],
      [
        "t",
        "in"
      ],
      [
        "che",
        "ck"
      ],
      [
        "f",
        "am"
      ],
      [
        "he",
        "ar"
      ],
      [
        "k",
        "ind"
      ],
      [
        "at",
        "t"
      ],
      [
        "1",
        "2"
      ],
      [
        "s",
        "wee"
      ],
      [
        "s",
        "ide"
      ],
      [
        "c",
        "lo"
      ],
      [
        "wh",
        "ile"
      ],
      [
        "v",
        "o"
      ],
      [
        "time",
        "s"
      ],
      [
        "fu",
        "ck"
      ],
      [
        "in",
        "to"
      ],
      [
        "f",
        "ace"
      ],
      [
        "lo",
        "st"
      ],
      [
        "fin",
        "ally"
      ],
      [
        "w",
        "ow"
      ],
      [
        "com",
        "ing"
      ],
      [
        "t",
        "ur"
      ],
      [
        "bu",
        "r"
      ],
      [
        "ear",
        "ly"
      ],
      [
        "un",
        "ch"
      ],
      [
        "fri",
        "day"
      ],
      [
        "s",
        "it"
      ],
      [
        "r",
        "oo"
      ],
      [
        "f",
        "l"
      ],
      [
        "w",
        "ard"
      ],
      [
        "r",
        "un"
      ],
      [
        "as",
        "on"
      ],
      [
        "wor",
        "ld"
      ],
      [
        "le",
        "ft"
      ],
      [
        "bo",
        "y"
      ],
      [
        "n",
        "et"
      ],
      [
        "tu",
        "re"
      ],
      [
        "g",
        "ive"
      ],
      [
        "c",
        "or"
      ],
      [
        "c",
        "ha"
      ],
      [
        "d",
        "on"
      ],
      [
        "b",
        "i"
      ],
      [
        "ww",
        "w"
      ],
      [
        "x",
        "o"
      ],
      [
        "at",
        "ed"
      ],
      [
        "ad",
        "d"
      ],
      [
        "some",
        "one"
      ],
      [
        "s",
        "ing"
      ],
      [
        "stu",
        "ff"
      ],
      [
        "p",
        "i"
      ],
      [
        "sa",
        "me"
      ],
      [
        "ac",
        "t"
      ],
      [
        "u",
        "u"
      ],
      [
        "s",
        "at"
      ],
      [
        "re",
        "e"
      ],
      [
        "l",
        "and"
      ],
      [
        "s",
        "et"
      ],
      [
        "t",
        "v"
      ],
      [
        "bo",
        "red"
      ],
      [
        "miss",
        "ed"
      ],
      [
        "l",
        "ine"
      ],
      [
        "po",
        "st"
      ],
      [
        "ac",
        "tu"
      ],
      [
        "s",
        "on"
      ],
      [
        "lo",
        "ad"
      ],
      [
        "d",
        "in"
      ],
      [
        "gl",
        "ad"
      ],
      [
        "part",
        "y"
      ],
      [
        "bir",
        "th"
      ],
      [
        "f",
        "ar"
      ],
      [
        "have",
        "nt"
      ],
      [
        "su",
        "cks"
      ],
      [
        "ch",
        "o"
      ],
      [
        "no",
        "thing"
      ],
      [
        "bre",
        "ak"
      ],
      [
        "ther",
        "s"
      ],
      [
        "w",
        "al"
      ],
      [
        "tal",
        "k"
      ],
      [
        "tw",
        "o"
      ],
      [
        "we",
        "ather"
      ],
      [
        "h",
        "un"
      ],
      [
        "happ",
        "en"
      ],
      [
        "s",
        "pe"
      ],
      [
        "ll",
        "e"
      ],
      [
        "p",
        "ho"
      ],
      [
        "al",
        "so"
      ],
      [
        "d",
        "ri"
      ],
      [
        "t",
        "ra"
      ],
      [
        "l",
        "ater"
      ],
      [
        "ig",
        "n"
      ],
      [
        "m",
        "any"
      ],
      [
        "loo",
        "ks"
      ],
      [
        "g",
        "er"
      ],
      [
        "be",
        "au"
      ],
      [
        "u",
        "re"
      ],
      [
        "go",
        "d"
      ],
      [
        "mi",
        "ght"
      ],
      [
        "won",
        "der"
      ],
      [
        "at",
        "s"
      ],
      [
        "st",
        "ay"
      ],
      [
        "s",
        "aw"
      ],
      [
        "birth",
        "day"
      ],
      [
        "httptwitpiccom",
        "6"
      ],
      [
        "ar",
        "y"
      ],
      [
        "fre",
        "e"
      ],
      [
        "are",
        "nt"
      ],
      [
        "a",
        "p"
      ],
      [
        "m",
        "r"
      ],
      [
        "h",
        "es"
      ],
      [
        "o",
        "s"
      ],
      [
        "f",
        "er"
      ],
      [
        "actu",
        "ally"
      ],
      [
        "an",
        "k"
      ],
      [
[...]
